[PAD]
[UNK]
[CLS]
[SEP]
[MASK]
[DES]
[QS]
[CODE]
[SOLU]
[INFO]
[NON]
!
"
#
$
%
&
'
(
)
*
+
,
-
.
/
0
1
2
3
4
5
6
7
8
9
:
;
<
=
>
?
@
A
B
C
D
E
F
G
H
I
J
K
L
M
N
O
P
Q
R
S
T
U
V
W
X
Y
Z
[
\
]
^
_
`
a
b
c
d
e
f
g
h
i
j
k
l
m
n
o
p
q
r
s
t
u
v
w
x
y
z
{
|
}
~
¡
¢
£
¤
¥
¦
§
¨
©
ª
«
¬
®
¯
°
±
²
³
´
µ
¶
·
¸
¹
º
»
¼
½
¾
¿
À
Á
Â
Ã
Ä
Å
Æ
Ç
È
É
Ê
Ë
Ì
Í
Î
Ï
Ð
Ñ
Ò
Ó
Ô
Õ
Ö
×
Ø
Ù
Ú
Û
Ü
Ý
Þ
ß
à
á
â
ã
ä
å
æ
ç
è
é
ê
ë
ì
í
î
ï
ð
ñ
ò
ó
ô
õ
ö
÷
ø
ù
ú
û
ü
ý
þ
ÿ
ā
ă
ą
ć
ĉ
Č
č
ď
đ
ė
ę
ě
ĝ
ğ
ī
İ
ı
ĵ
Ł
ł
ń
ň
ő
Œ
œ
ř
ś
ŝ
ş
Š
š
ţ
ť
ū
ŭ
ů
ű
ų
Ÿ
ź
ż
Ž
ž
ƒ
ș
ț
ə
ˆ
˷
́
̅
̶
Α
Δ
Ε
Η
Ι
Κ
Μ
Ο
Π
Σ
Τ
Ω
ά
έ
ή
ί
α
β
γ
δ
ε
ζ
η
θ
ι
κ
λ
μ
ν
ξ
ο
π
ρ
ς
σ
τ
υ
φ
χ
ψ
ω
ό
ύ
ώ
Ё
А
Б
В
Г
Д
Е
З
И
К
Л
М
Н
О
П
Р
С
Т
У
Ф
Х
Ц
Ч
Ш
Э
Я
а
б
в
г
д
е
ж
з
и
й
к
л
м
н
о
п
р
с
т
у
ф
х
ц
ч
ш
щ
ъ
ы
ь
э
ю
я
ё
є
і
ї
ј
њ
ћ
ա
א
ב
ג
ד
ה
ו
ז
ח
ט
י
כ
ל
ם
מ
ן
נ
ס
ע
פ
צ
ק
ר
ש
ת
أ
ا
ب
ة
ت
ث
ج
ح
خ
د
ر
ز
س
ش
ص
ض
ط
ع
ف
ق
ك
ل
م
ن
ه
و
ي
َ
ِ
ک
گ
ی
ݿ
߰
ं
अ
क
च
ज
ट
ड
ण
त
द
न
प
ब
म
य
र
ल
व
श
स
ह
ा
ि
ी
ु
ू
े
ो
्
।
ং
অ
আ
ই
উ
এ
ক
গ
চ
জ
ট
ড
ণ
ত
থ
দ
ন
প
ব
ভ
ম
য
র
ল
শ
ষ
স
হ
া
ি
ু
ূ
ে
ো
্
য়
ৰ
ৱ
ਂ
ਕ
ਤ
ਨ
ਮ
ਰ
ਲ
ਵ
ਸ
ਾ
ੀ
ੇ
ੋ
ક
ત
ન
પ
મ
ર
વ
સ
ા
ી
ે
ો
્
କ
ତ
ଦ
ନ
ପ
ବ
ମ
ର
ସ
ା
ି
ୁ
େ
୍
ୟ
க
ச
ட
த
ந
ன
ப
ம
ய
ர
ற
ல
ள
வ
ா
ி
ு
ை
்
ం
అ
క
గ
చ
ట
డ
త
ద
న
ప
ఫ
బ
మ
య
ర
ల
వ
ష
స
ా
ి
ీ
ు
ూ
ె
ే
ో
్
ಂ
ಅ
ಕ
ಗ
ಚ
ಟ
ಡ
ಣ
ತ
ದ
ನ
ಪ
ಬ
ಮ
ಯ
ರ
ಲ
ಳ
ವ
ಸ
ಾ
ಿ
ು
ೆ
ೊ
ೋ
್
ം
ക
ങ
ച
ട
ത
ന
പ
മ
യ
ര
റ
ല
ള
വ
സ
ാ
ി
ു
െ
േ
്
ක
ත
න
ම
ය
ර
ව
ස
්
ා
ි
ก
ด
ท
น
บ
ม
ร
ว
อ
ั
า
เ
แ
่
้
์
ა
ი
្
‐
‑
–
—
―
‘
’
‚
“
”
„
†
•
‣
…
‧
‹
›
⁄
€
№
™
←
↑
→
↓
↦
↩
↳
⇒
∇
∎
−
∘
√
∨
≤
≥
⊃
⌊
⌋
⌘
⌚
⎜
⎡
␊
␍
⑤
─
━
│
┌
┐
└
┘
├
┤
┬
┴
┼
═
║
╟
╠
╡
╢
╣
╤
╥
╦
╧
╨
╩
╪
╫
╬
▀
▂
▄
█
▐
░
▒
▓
■
▶
▸
●
☕
☺
⚡
✅
✓
✔
✗
❯
➜
⟨
⟩
、
。
「
」
あ
い
う
か
が
き
く
こ
さ
し
す
せ
た
だ
つ
て
で
と
な
に
の
は
ま
み
め
よ
ら
り
る
れ
を
ん
ァ
ア
ィ
イ
ウ
エ
オ
カ
キ
ク
グ
コ
サ
シ
ジ
ス
セ
タ
ダ
ッ
ツ
テ
デ
ト
ド
ネ
バ
パ
フ
ブ
プ
ポ
マ
ム
メ
ュ
ョ
ラ
リ
ル
レ
ロ
ン
・
ー
一
上
下
不
个
中
为
了
人
代
以
件
体
作
你
使
信
個
入
关
出
分
到
前
力
加
务
动
動
化
参
发
可
号
合
名
告
器
在
場
外
大
失
好
字
安
定
工
已
年
开
式
性
您
成
我
户
所
接
提
数
文
新
方
无
日
时
是
時
更
最
月
有
服
期
未
本
机
正
此
法
测
版
特
理
生
用
的
目
知
码
示
程
管
系
统
网
置
能
自
行
表
要
解
記
設
語
読
证
试
误
载
込
这
选
通
错
開
除
面
项
體
가
고
그
기
나
는
니
다
도
로
를
리
문
보
사
서
세
수
스
습
시
어
에
오
요
용
으
은
을
의
이
인
일
있
자
정
제
지
트
하
한
할
합
해
️
！
（
）
，
１
：
；
？
￼
##x
##a
##b
##6
##7
##9
##0
##e
##t
##I
##n
##i
##l
##L
##D
##m
##r
##4
##8
##3
##5
##2
##1
##C
##o
##w
##U
##R
##O
##s
##f
##d
##c
##P
##E
##A
##X
##q
##u
##z
##J
##W
##g
##S
##Q
##V
##F
##y
##p
##T
##G
##Y
##v
##B
##H
##N
##°
##K
##M
##h
##©
##j
##দ
##্
##ে
##শ
##য
##k
##Z
##л
##а
##н
##к
##у
##Ã
##ρ
##ό
##π
##ο
##ς
##ل
##─
##ę
##ć
##í
##ß
##é
##스
##트
##ü
##¾
##â
##고
##േ
##ര
##്
##ക
##ു
##е
##р
##с
##і
##я
##Â
##č
##á
##т
##о
##в
##¬
##¹
##´
##τ
##η
##ν
##ί
##μ
##α
##и
##з
##ч
##ז
##י
##정
##하
##습
##니
##다
##ö
##Ö
##¼
##м
##ન
##્
##ત
##ä
##º
##³
##ù
##Ø
##Ë
##Ó
##д
##б
##ы
##х
##ד
##ו
##ע
##Ç
##¸
##¢
##ŝ
##ý
##ύ
##ò
##░
##▒
##ो
##ं
##द
##ण
##ी
##ÿ
##à
##ó
##й
##사
##기
##ě
##ª
##Ð
##│
##Á
##µ
##ι
##έ
##ț
##Ê
##п
##¨
##ר
##ם
##€
##ை
##ப
##்
##ு
##ব
##হ
##ত
##ú
##ç
##®
##╦
##╥
##ш
##œ
##ø
##ė
##ь
##±
##バ
##ー
##ジ
##ョ
##ン
##を
##こ
##と
##が
##で
##き
##ま
##せ
##ん
##א
##Ä
##×
##î
##Ñ
##Å
##û
##£
##ř
##ê
##Ü
##√
##්
##ර
##ි
##ය
##ා
##ő
##ё
##ת
##מ
##ą
##Õ
##の
##リ
##ポ
##ト
##ð
##ি
##প
##জ
##ন
##ক
##χ
##ε
##ï
##├
##┬
##의
##ാ
##ന
##ത
##ി
##ה
##ח
##サ
##ブ
##ス
##ク
##プ
##シ
##š
##パ
##テ
##ィ
##ル
##þ
##Û
##щ
##è
##ю
##ି
##କ
##୍
##ପ
##ୁ
##و
##س
##ي
##ة
##Р
##њ
##ی
##ک
##ن
##م
##●
##õ
##ì
##ł
##æ
##╬
##╠
##Ù
##Ý
##ッ
##デ
##グ
##→
##▓
##خ
##ت
##ص
##ا
##ر
##߰
##ف
##å
##ã
##Ž
##Ο
##С
##Κ
##Α
##ц
##½
##┌
##╟
##╤
##╣
##╫
##¥
##ा
##त
##्
##र
##ू
##प
##म
##े
##キ
##ュ
##メ
##는
##▀
##ס
##ט
##כ
##ু
##ৰ
##া
##ই
##Ì
##ב
##¤
##ක
##∇
##É
##ݿ
##ś
##な
##れ
##り
##ż
##¯
##ق
##Æ
##φ
##ά
##σ
##²
##™
##합
##г
##È
##レ
##ि
##न
##य
##स
##ж
##이
##어
##ર
##મ
##ા
##પ
##ે
##ô
##┘
##́
##해
##ம
##வ
##க
##ள
##┼
##┤
##し
##た
##λ
##γ
##ή
##█
##¦
##డ
##ు
##త
##ం
##ద
##ి
##Î
##Ω
##를
##ド
##Ι
##Μ
##Ε
##ম
##ল
##ট
##に
##가
##지
##פ
##మ
##క
##ా
##ల
##ీ
##ర
##ب
##그
##ร
##ع
##د
##̶
##Д
##А
##Л
##Е
##Н
##র
##═
##क
##ī
##ї
##ز
##Ò
##ව
##Ô
##Х
##Ï
##ğ
##ल
##ब
##┐
##ਰ
##ਤ
##υ
##κ
##മ
##▄
##െ
##യ
##ല
##த
##ற
##ه
##ˆ
##ë
##╨
##╩
##로
##ñ
##δ
##ž
##ୟ
##ା
##ର
##ె
##న
##్
##ట
##ప
##ో
##÷
##ń
##↓
##└
##ك
##Þ
##ह
##용
##자
##ω
##시
##َ
##ِ
##ש
##ி
##ய
##ர
##ਾ
##À
##व
##צ
##Ú
##బ
##ट
##ş
##╢
##╡
##İ
##나
##ћ
##β
##み
##에
##て
##い
##ώ
##θ
##문
##Í
##В
##오
##Т
##ട
##エ
##ラ
##ј
##서
##く
##ξ
##ű
##←
##ă
##ड
##ත
##ť
##ň
##す
##ો
##أ
##Η
##세
##요
##ф
##ア
##イ
##は
##ツ
##よ
##う
##ā
##ș
##ா
##ட
##ح
##ش
##도
##න
##리
##ק
##▂
##વ
##か
##ら
##স
##ų
##あ
##る
##ı
##Š
##ĝ
##으
##ಿ
##ಕ
##ನ
##್
##ତ
##େ
##ŭ
##ੇ
##ੋ
##ψ
##ೆ
##ಗ
##ಳ
##ು
##ث
##▐
##ネ
##ź
##ウ
##カ
##ə
##ல
##제
##ל
##ロ
##め
##่
##ั
##้
##╪
##చ
##ਂ
##ી
##М
##ი
##য়
##ム
##ੀ
##ే
##య
##ன
##タ
##マ
##Ч
##Ф
##గ
##ג
##ן
##␊
##ਨ
##ਵ
##ਮ
##さ
##ড
##অ
##║
##╧
##ज
##گ
##ƒ
##ച
##ം
##ક
##■
##ū
##গ
##ূ
##ु
##च
##נ
##ো
##ಪ
##ಾ
##ಯ
##−
##ů
##є
##ම
##⁄
##Ё
##ط
##э
##ମ
##ա
##ζ
##인
##보
##ก
##ସ
##ష
##ವ
##ಸ
##일
##ণ
##オ
##থ
##은
##할
##Э
##Г
##↑
##ď
##Č
##フ
##ァ
##을
##સ
##Ÿ
##ţ
##≤
##コ
##ନ
##ಂ
##ಬ
##ಲ
##ದ
##চ
##О
##Б
##И
##Σ
##श
##ಟ
##സ
##ങ
##వ
##ବ
##ਸ
##Ł
##セ
##ং
##ਲ
##ষ
##␍
##ச
##К
##ダ
##У
##П
##ਕ
##˷
##เ
##ว
##า
##น
##ท
##ಣ
##️
##한
##റ
##Œ
##￼
##ъ
##ರ
##ಚ
##つ
##ج
##ض
##ూ
##స
##đ
##┴
##ม
##ด
##บ
##อ
##ভ
##ೋ
##വ
##ಮ
##ತ
##ந
##ĉ
##ಡ
##Τ
##수
##ĵ
##แ
##പ
##ള
##ა
##≥
##ৱ
##ೊ
##↩
##្
##Ш
##━
##์
##ස
##だ
##ఫ
##№
##➜
##Π
##Δ
##З
##⚡
##উ
##✓
##ಅ
##ଦ
##✗
##▸
##Я
##있
##１
##☕
##↦
##∨
##⊃
##☺
##▶
##⌘
##⎡
##Ц
##∎
##আ
##अ
##అ
##এ
##⇒
##er
th
##in
##at
##on
##or
##en
##es
##ed
##00
the
in
##le
##ing
##ro
##re
##an
##it
to
##ou
##is
##al
##ion
##il
##as
##ar
##et
##ent
##ct
##om
re
##ib
##nd
##ch
##st
0x
##ot
is
##el
##ut
##ic
##ug
##ad
##se
lib
be
##ag
##ac
at
##av
##ol
##ow
and
or
##ab
of
##0000
for
it
this
on
##pp
Th
##ly
us
##am
##est
com
st
##id
##ter
##ff
pro
##ce
de
##ig
##ment
##ip
##ate
con
##rom
##od
##ation
that
##ill
##ess
##em
from
##ect
##ith
wh
##un
not
##cl
org
so
##im
##ver
##ec
##ul
##age
##ack
##ld
you
##ur
##able
bug
##ay
##ew
fi
##oc
##86
as
with
##ould
sh
##ort
##pt
ch
ex
##ail
##ers
an
al
##01
sy
##ore
##ain
##ork
##pl
##clip
##clipse
##ase
##th
##ated
se
##ere
rep
ht
##all
##op
##ach
##iv
##read
##us
up
##os
el
##tp
##ava
##ave
cl
eclipse
do
##ue
##dd
##ist
##ke
##if
usr
##ir
lo
tr
##ang
##ex
we
10
su
http
##art
In
##pen
##ome
can
en
java
##mb
##and
##ame
test
##ine
if
no
##ind
0x0000
have
##ust
##fo
##de
##iz
64
##atch
##ject
but
##ble
##ult
are
mo
11
##ap
The
work
##tr
set
##uil
##rr
12
##cc
res
##illa
by
##zilla
##vent
get
x86
##64
##7f
app
##ction
has
##ext
##ime
##ode
##uild
201
un
##lease
ser
att
run
cont
##ks
##nal
upd
##our
out
pl
##out
add
inst
##mbol
##mp
##iew
symbol
##qu
This
##ern
##orm
will
Re
##ES
should
dev
##ace
attach
##ersion
file
##rror
rh
##11
all
##blem
di
##up
##yp
##ackage
0xb
el6
##ice
##ht
was
problem
##du
No
open
##end
av
ne
##ass
inter
##80
##000
##ile
comp
##ure
##40
##ally
13
chang
##ound
val
int
info
new
##oot
##um
comm
##ernel
conf
fix
##ory
##lic
##ink
opt
16
dis
##act
##ive
##ux
comment
kernel
##ailable
##cr
https
##og
##one
##ost
##form
##ity
##bug
##ata
##ser
##stem
##so
##ve
build
##ell
##eth
##inux
##ich
##ard
attachment
##ub
id
available
##reated
##eck
##per
00
been
ma
15
##20
##ant
##ight
14
##ont
##ob
any
##10
does
when
##ype
##ast
server
20
would
debug
log
##get
sp
##ml
table
ab
##int
##own
there
error
##DE
patch
loc
use
version
##indow
me
libg
mozilla
which
0x00007f
need
##fa
##ep
##ok
##rect
time
pr
##sh
##cess
start
fil
my
##ree
##32
##rodu
##gr
some
##ies
17
li
CO
##let
##ite
install
##ash
##ource
##12
ar
gn
##are
If
##55
cpp
St
##ther
iss
##nt
see
##30
##lib
##ning
one
go
internal
pre
Created
De
##ED
##90
It
##arch
##ong
##app
##50
mod
##dit
##ide
##ix
##60
##hat
##70
##lication
##UL
##crip
19
using
only
man
requ
like
##cript
rem
report
##bject
##ages
##ick
18
red
##con
##tk
##enc
##rc
0x0
##ions
##use
main
found
just
sc
##ied
Bug
##ock
config
le
##oad
##pport
##ark
##ible
Package
##row
core
py
root
##ui
##pect
##Event
##lect
##ting
system
Pro
##ize
##24
Com
##plic
##00000000
more
##ify
reply
##88
Thread
##16
code
##ath
##fer
##ffff
cr
check
##ose
##ans
##77
ag
##und
per
##14
imp
200
##ial
##urr
##34
##fault
ke
fol
##ugin
##view
##fs
still
##ca
im
##ient
##15
##low
now
updated
##ri
##idget
##ging
your
##ool
##96
##84
##74
##36
du
fail
act
think
##ized
qu
##fter
data
line
##ems
name
##ccess
##72
cre
22
call
##ating
##CT
user
##PE
des
what
src
##ULT
##ead
list
kde
aut
##686
##ance
RES
##76
##56
##ll
also
##94
##cept
files
issue
don
We
##ener
##ution
back
##nect
##ord
show
value
type
could
other
##ak
##urrent
##urn
##ager
##ire
mess
then
el5
##irt
ret
##92
i686
par
change
##ary
##13
##82
##ens
em
bl
##vice
update
##ET
32
24
same
##pend
Than
stat
make
##ethod
##ved
##52
RESULT
##lement
about
##tc
##ount
##put
##oth
##54
ui
sig
##der
##ox
fe
linux
try
duplic
mark
##ple
##18
sw
##ays
Ex
##ait
result
wr
default
event
gnome
##99
##pr
package
inv
##abl
str
##ence
symbols
sec
ad
etc
plugin
thread
23
please
##ull
##be
##til
redhat
am
##ific
net
debugging
30
##IN
##uster
duplicate
##ss
##oo
##ual
##ffer
##fff
##ely
commit
##73
##ition
br
##clu
##formation
##AN
cor
window
gl
##ee
optim
ver
kn
brow
##oss
key
##19
local
##VE
hand
after
##OR
sys
##ince
##SS
reprodu
rhel
rec
read
##ry
##ument
var
##ef
git
here
##ator
lib64
ev
po
gtk
IN
##53
##78
##db
fl
26
part
create
##St
##5a
##ove
optimized
##oug
##AA
##UR
process
hel
##EST
##io
sub
current
doc
ph
##nc
##sp
##ia
##pd
ap
request
bet
Wh
into
bin
Thanks
than
inclu
crash
prov
may
view
##ous
init
##58
##79
information
fixed
##umb
support
tool
##ake
fr
##SE
them
##In
##ds
case
browser
spec
project
beca
som
because
##CTED
##ates
##ft
follow
want
01
##33
##thon
##play
##fore
##XPE
##pm
##XPECTED
und
down
arg
##lean
release
look
rhui
return
##22
Linux
##hread
fun
##ache
##ask
gre
used
Al
##ream
##59
02
TEST
##ign
Add
know
how
text
##ON
fir
Ch
html
##ese
select
direct
##str
entr
##ear
ca
rele
##AT
class
21
##eb
##ert
##38
det
##ule
again
happ
marked
message
host
##not
##IL
##Pro
did
over
long
KDE
find
exec
##olution
way
client
##iss
##ress
25
Version
##ge
##load
noarch
Rep
help
##anager
So
##stall
they
devel
Please
ext
##ystem
js
##ish
##onent
gener
doesn
##fig
##gine
##ER
clos
pack
connect
wait
##17
##vis
##ote
Eclipse
##thread
04
##pected
##roup
##Ex
##386
context
##ough
python
##ency
load
##98
ind
En
Upd
lat
##Im
0x4
where
28
##ivate
CVE
first
sim
##ually
##work
##ise
##MM
proper
widget
reg
08
##ues
##atform
source
ve
##reen
differ
content
##min
##fox
##ler
##ified
##vel
##ty
##mit
##ik
29
##ME
##gi
##ade
##elf
40
PA
before
##da
function
bugs
##ute
##very
##pplication
col
##unch
ll
Un
pass
##ession
sure
##ception
##62
##ton
installed
page
i386
##ases
03
signal
command
gu
##aster
##aw
trans
##ID
ref
seems
since
tw
##FO
size
rpm
##ner
##cription
status
For
Work
##time
entry
##patch
##ook
dr
##round
##enu
##39
##ready
edit
RH
##af
##Cont
##ov
##ething
Ver
##ature
##ample
def
right
How
##75
object
end
##ush
##ST
already
Cl
##66
contain
##ings
##PI
##aunch
home
##ations
##EL
rel
##AND
port
34
##ags
##ious
COMM
##osit
##eps
device
##ces
tim
Con
application
correct
##umber
sl
link
its
Res
42
tests
Install
0x40
##ware
##ier
web
0x8
Process
results
##Manager
something
##dc
##kt
ass
##edor
##Qt
##face
0x7f
component
##port
You
running
under
##ever
##Con
COMMAND
##AR
##Core
As
db
##44
05
RET
off
libc
CODE
27
##28
access
##URN
##abled
##ys
##ench
libQt
09
Su
review
RETURN
these
works
valid
send
On
acc
done
##Impl
##roll
Pl
PASS
##68
changes
state
##WP
##lete
Tr
reproduce
ns
##c0
gr
gluster
tree
LWP
mail
##ie
##file
Ser
##Object
##ative
NE
100
##000000000000
##ider
##ond
##dt
##a0
INFO
##35
following
##ktop
glib
##alog
even
##pendency
##oke
##ways
##bench
util
libs
poss
Window
produ
different
06
tar
mem
##res
setting
0x7
But
An
##ased
packages
##ful
form
##d0
every
Can
EXPECTED
master
##37
##ww
x11
0x00
##ted
without
action
And
grep
##e0
lang
swt
Mo
number
image
File
include
configur
##other
bit
option
##b0
post
two
When
There
07
OS
##ange
ac
had
##object
share
##31
##oid
##df
point
##ume
import
exist
##aa
button
last
too
31
beh
path
##back
being
php
50
www
Test
New
xml
##trib
failed
##ably
##ger
output
FA
screen
##inal
well
method
##71
Cont
Act
##lection
##ason
##26
##95
##48
example
##itor
rest
##oop
directory
Comp
bugzilla
dialog
click
block
##te
really
pub
resol
Reprodu
36
##xy
cannot
##ools
address
display
DE
bel
##uch
service
good
##IG
able
##ility
##5a5a
##uct
##rit
Des
##inter
plugins
44
he
##ffect
PR
created
document
##e4
##stream
implement
te
##ices
our
libglib
added
##opy
NEW
task
group
##pc
##virt
os
##urity
mon
cert
free
##Ch
##Application
were
menu
param
qt
gnu
##thing
##leanup
cons
very
##Cl
##ML
met
##93
tmp
char
##ails
##51
such
##ository
feature
ob
Sh
invoke
##RR
##edora
while
Mozilla
##we
##river
might
true
Error
##ures
script
changed
##ck
engine
##f0
##ior
System
##itional
kd
search
download
##c2
##aver
0000
Fire
##bo
##vious
Red
##rol
reason
min
##De
##57
both
working
Java
QEvent
appear
##ames
boot
Se
old
node
What
##3b
##97
instead
##ference
##ps
Windows
##tring
Verify
##ources
00000
38
Dis
possible
##word
##Ser
Do
##ical
head
52
##View
launch
##91
icon
##sole
##oy
0x1
33
base
Steps
Dependency
cgi
##itch
##ework
allow
FAIL
##ules
##bably
Updating
another
##amework
##par
##ci
pol
Support
0xb7
##UG
const
happen
job
ms
##TP
##ced
##42
##Thread
ERR
##AL
common
48
##rok
##vm
index
progr
Open
46
##ian
##aving
push
remove
selected
##USE
0x0000000000000000
##List
35
##cf
target
##aps
releases
##ift
RE
mach
##ugg
##cb
US
That
##ferenc
behav
war
widgets
close
Firefox
ide
##kn
libpt
##cible
virt
extens
Processing
users
##IT
Is
latest
next
tab
##Com
Not
UR
cm
##vision
bu
54
##ION
runtime
null
dist
Run
autom
##config
mode
##ba
miss
##Re
Comment
many
UN
libpthread
why
probably
got
tem
oper
##NT
driver
##urs
better
##shot
product
##oks
mult
security
##stract
looks
##ten
fine
Cleanup
pthread
clone
##orage
mak
##crib
requir
network
##ines
platform
##OT
au
##ph
0x2
rece
Build
##ber
##ically
##alse
##known
Fedora
Ab
##eld
el7
model
let
##ery
jar
non
vol
ip
handle
##uggest
sn
41
##ender
bre
##ma
most
##alid
self
##ined
39
who
##over
##fb
##a2
Hat
##ann
##box
##46
2016
##ither
instance
pres
pers
0xb6
inc
37
provide
May
##ync
2017
##dk
string
##81
##omain
module
##cp
##sert
tools
000
##ls
0x00000000
sm
##erm
fire
API
##ors
##orry
much
solution
those
##ustom
copy
Fix
##ithub
fc
##ternal
gcc
##pos
0x000000
problems
##ING
43
##aph
stack
jdt
##En
tried
At
closed
orig
auth
51
Main
occ
##d4
##Pr
##f8
##iler
##ayout
##roug
##board
##IC
##anch
##tu
##space
ID
80
unix
site
##SA
56
track
##xx
##ea
Expected
disc
libgobject
font
##ics
##lear
cat
includ
print
##pon
My
##ouse
desktop
dat
suggest
actually
issues
##rary
manager
##eta
via
45
##d8
##ferences
##util
develop
ow
0x00007
going
##action
github
above
format
UI
##e8
revision
##open
##Method
##ispatch
Us
updates
##way
##tem
repository
always
specific
##igh
Workbench
58
hard
##rome
configuration
##used
cache
##c4
##AAAA
47
lock
##rough
perl
##uring
##Events
##AD
##undle
filter
Also
else
recent
though
testing
pe
##aces
flags
vm
##line
Description
##ru
top
##21
OK
##c8
Enter
##ular
void
dec
v2
##untu
Reproduce
##5b
##andler
Actual
##ention
##69
##info
warning
provid
##rop
write
##irm
Installing
least
##Loop
related
##23
enabled
60
needed
Or
##yn
##ird
branch
##BUG
equ
folder
real
previous
##sc
depend
##ars
##Run
##ql
Release
##ged
##Exception
##29
wrong
##a4
##ecko
Set
account
GL
ins
gm
##7b
##1b
##roller
##odel
sch
##ether
sol
##vs
49
##Error
Bugzilla
Server
expected
fd
needs
##tools
missing
public
take
##yle
Hi
gems
cent
eas
ERROR
##AP
##cd
lab
resource
##igned
##ately
##ild
repo
##Type
##LE
through
mar
GN
##day
machine
element
connection
each
##Widget
2014
##nome
##ared
##rl
ST
doing
yet
##emon
70
To
CP
switch
false
##a8
rb
rev
break
vs
##prise
Yes
##Private
RHEL
##ploy
describ
##actory
##oved
##init
2015
editor
env
memory
##mm
##IR
disk
currently
libgtk
pan
##ermin
##25
attached
level
dou
##tes
##bit
Net
##chit
0x80
##Context
##9b
##ey
pop
ask
##bin
Rem
##les
say
##ope
match
##63
setup
However
##2b
didn
things
either
buil
##ification
trace
sync
##OS
item
settings
VM
messages
##iver
builds
##po
west
UNE
yes
UNEXPECTED
##61
CON
their
##ister
gst
diff
framework
called
fffff
##mand
Additional
vis
##ale
err
53
##ables
##ense
Could
##ople
details
##apt
typ
0x7fff
io
##MP
##host
##ns
program
errors
##atter
remote
custom
##ron
##IB
URL
##bound
Abstract
HT
isn
See
DEBUG
##83
thing
won
dispatch
##ather
##AC
notify
Type
##5f
##elib
move
##Class
sa
upgr
##67
put
happens
mer
##ization
complet
##urther
chrome
##eng
timeout
##ween
##iron
##ipp
Aut
##ving
pointer
clear
box
team
order
##ties
fin
##dev
reopen
emit
options
##ower
tal
between
anything
prot
da
ok
##Res
session
##iles
yum
##shift
vari
opens
second
uint
input
##pro
##bar
ovirt
sun
##entoo
lot
##rib
shell
initial
perform
##ests
made
longer
2013
##build
90
##65
AC
until
##lock
##igr
##ilter
59
confirm
##DT
55
##3f
rw
##27
Qt
values
jb
full
##ironment
mount
openshift
separ
##essage
firefox
present
msg
resolved
Result
must
##ax
2019
##ueue
loop
based
play
fre
##stand
##iple
few
##AG
cp
##her
QEventLoop
##ftware
##a1
##vices
trying
After
##uby
##less
tak
apache
cond
##89
modules
##org
during
Method
people
Enterprise
reflect
maybe
tls
##Access
##trace
##icy
Platform
giv
keep
Ar
##imit
sign
##RE
##ilar
##Load
below
##fr
double
libQt5
##ispatcher
##ody
around
##ards
active
removed
0x080
field
##com
storage
##velop
##eed
##ocation
Display
cal
##tain
CONF
python2
##aven
##ms
norm
bytes
respon
win
sock
##sl
names
##SUSE
activ
##call
##9f
##Item
reproducible
##eter
extr
##leg
Since
##gn
Web
##UN
password
##ae
makes
##OME
##ud
note
##ection
static
interface
##led
iter
IP
own
##abase
mention
##WT
east
guess
required
further
volume
##buntu
##ng
high
Man
fixes
##core
101
moz
##fort
57
##ditor
##reate
##Fl
##oud
mean
workspace
##ily
console
CONFIG
##Tr
monitor
repl
##Window
versions
##annel
correctly
templ
##val
Start
never
bus
00000000
success
admin
##File
##edia
property
##unk
seem
behavior
ruby
##orImpl
All
##IX
##iki
openSUSE
##eg
libk
##ateg
writ
exception
##vant
tag
Sub
##CI
##inox
apply
having
##set
##6b
ld
domain
Commit
##cho
adding
ssh
windows
dig
max
##ict
shows
once
##pid
devtools
against
##pty
daemon
quest
##ingle
left
events
control
##atus
##Action
similar
understand
##Log
##d2
exit
Native
enc
pk
due
style
uses
enter
Object
##ities
##roid
##nection
library
##ibility
##ailed
##errit
short
##uss
##Name
stand
slave
##oving
ffffffff
appears
99
2018
fa
##87
idea
##cs
##ename
Mon
##ments
##d5
sever
mochit
dir
From
Review
##f4
whether
restart
execute
reported
cluster
74
delete
##name
require
applic
stage
upstream
Thank
##200
##ially
bas
##ceed
dm
submit
termin
##OM
utils
##list
##hing
Fr
del
extension
##ral
##String
##ello
##ah
jboss
##bb
place
rather
gdb
exp
arch
Load
##az
##for
Check
##UI
applicable
audit
##ived
handler
##c1
projects
Mar
socket
WAR
CPU
art
##ories
##TF
##e2
save
enable
##ifier
exact
cause
Sc
parent
enough
date
transl
brok
##event
Application
consider
##vn
##dition
##PM
##adata
String
##85
User
Sp
side
##log
hg
contains
##ULL
##Data
##c6
api
##odule
##irr
Note
##cel
##Service
Gecko
##e6
##ideo
##Handler
cc
##emu
getting
delet
##elibs
supp
rhn
##ocument
deploy
Patch
##Pl
started
usb
email
original
##Work
##aint
jface
query
sk
url
kdelibs
Results
App
##d6
proxy
##idth
##ocus
sbin
stop
later
Any
Here
##aging
##App
##itle
##egr
wiki
configure
ans
With
layout
WARN
##MethodAccess
Source
equinox
profile
##obal
##43
described
2012
bind
##Se
##tribute
##010
##idd
##path
##ev
##application
##uff
##Id
properties
qemu
effect
##c3
##irect
expl
Event
Network
##a6
##mail
empty
##down
affect
##5a5a5a5a
##ieve
times
##Test
NULL
thanks
feel
##pper
##Loader
Reg
press
nothing
simple
disabled
libx
##pre
advis
##MethodAccessorImpl
means
fails
cd
##utils
##OL
ident
ff
ra
##FS
osgi
##vers
IM
Maybe
##quest
bad
contin
QM
sort
##41
Unknown
pc
single
##iq
Always
##ling
##49
0x9
##700
##DB
##fix
##UT
##asma
op
auto
##agement
##shal
0xffff
checked
##ialog
mouse
comments
cmov
logs
##osing
Using
stable
##We
##bird
##resh
quite
resources
existing
panel
register
##PT
components
Part
clean
multiple
small
##kit
flo
invalid
fact
##ecess
##miss
##VS
Ag
label
cho
##c9
##d3
give
portage
frame
Sorry
normal
resolution
##OD
sound
##here
export
ent
##point
installation
description
##ets
##OC
automat
bar
QObject
##ability
##ocol
subs
##fe
pci
expect
##ground
cut
gentoo
##ikam
libQtCore
##case
child
reb
location
pid
generated
##AB
##map
##utex
##utes
checking
wee
policy
GNOME
relevant
Pre
##45
##yscall
cases
tested
##atures
##gs
##key
pull
vds
##47
##rupt
ign
space
##d1
##haps
##ading
tell
##Text
##ished
shared
argument
pos
environment
##ently
charact
persist
caus
appro
Update
Just
migr
##xt
Gerrit
discuss
central
##ypt
##text
##itt
##Weaver
dest
Mac
limit
cvs
##ins
glibc
Inter
days
##uture
prior
verify
Running
timed
##CE
libthread
appl
##no
##ightly
##d9
activate
inbound
Back
gets
##ended
mac
##ND
screenshot
##Engine
##Sh
SWT
##onds
##igger
X11
##State
##lex
66
separate
vsyscall
##deps
##e9
Log
##a3
##Gui
##AS
uns
##empt
quick
##around
pul
believe
Trans
dh
glusterfs
tb
SS
Br
##rray
sysdeps
patches
provided
Now
##IF
color
reference
complete
selection
images
useful
##Filter
kw
Per
graph
controller
SP
CR
##fc
kind
software
Create
##vert
##qt
integr
Does
localhost
##net
Class
##IP
##gl
##ATE
devices
ro
##b5
upgrade
contact
conc
##For
62
struct
##pped
##ength
advisory
Go
##Set
WARNING
past
Project
##old
far
##aged
database
closure
libvirt
template
Ubuntu
##afe
Id
count
##iled
##edi
##inks
##ording
##TK
accept
exper
Dec
certific
2011
QApplication
attempt
Get
##ogle
metadata
##pi
mys
##odes
##Element
Jan
CVS
launcher
qevent
unknown
pushed
##por
##b8
Fixed
##irror
langu
##amp
processEvents
##a9
JS
Content
##ank
##izard
ls
properly
step
container
Git
less
itself
sit
##ooks
nss
##e3
##uration
##Part
##ves
extensions
documentation
##CH
##oun
##ought
released
supported
##Viewer
nfs
##f9
mentioned
backend
someone
##istry
guest
##si
title
args
##e1
88
##olog
127
render
##endar
##ATA
soon
receiver
sus
##chron
##ply
mt
seconds
maintain
detect
buffer
##f2
echo
2010
##pg
sense
successful
##ured
apps
partic
broken
lines
looking
Device
##apter
video
##Val
##Page
disable
several
63
##encies
Config
Gtk
119
Ad
##f6
##CP
errata
##fd
##mon
pages
mis
channel
cpu
##Fr
Widget
closing
110
focus
Current
libX
talos
##ward
marshal
nice
rv
##vider
86
impro
NOT
##ribution
##streamer
##Info
login
##Model
turn
sysconfig
response
passed
within
crashes
##ecessary
##etch
Ok
SU
Pr
##CS
map
e4
2020
Nov
implementation
##FA
##Util
getP
##c7
steps
virtual
##omp
##ored
##ached
##posed
everything
##irection
##istory
Setting
Inv
items
##b3
workaround
docs
##201
##ane
testcase
queue
generic
cf
##dir
compiler
width
reports
eth
##pace
##fortun
##ember
Message
##apro
bundle
##ending
snap
##a5
##e7
Try
Te
##Un
aw
Im
private
ul
##oding
##VM
compat
fs
ct
65
CD
libqt
operation
tbpl
##ete
stream
##elinux
##oring
##AME
##Config
Too
##Editor
##stack
Installed
stuff
feed
##d7
sysv
##ality
##apper
##lick
colum
libgnome
Jun
##b2
agent
overr
indic
drive
future
##Command
##b4
additional
##And
scroll
98
##truct
83
##c5
none
tot
Reproducible
avoid
##tty
trunk
question
##its
MS
seen
Int
thought
simply
Qu
##omm
##idge
##gin
remain
##iour
0x0000000000
Closing
##AM
Then
agree
spl
##uid
##pose
experi
87
png
84
##DK
rt
great
##ape
Make
lar
assert
##base
##conf
##more
exists
IS
72
Le
Auth
##a7
HE
##body
execut
##asks
xorg
flag
255
fedor
##edul
##roduct
VER
redirection
features
sent
except
wc
Other
services
##izer
beta
IA
96
lik
GTK
Par
##ORT
##ra
failure
automatically
PCI
##Par
##02
systemd
##Factory
background
##Build
header
xen
##red
##orter
float
plan
defined
Core
##pping
##imes
##pload
##vlet
##gen
ed
important
section
extra
##endor
##avig
##Job
##OW
##fortunately
shown
included
given
testlib
XML
##e5
##XT
##ari
regr
##Dispatcher
impl
behaviour
##ittle
95
buildd
int64
##wise
SUSE
sorry
##FF
best
##ero
moved
ffffffff8
0x00007ffff
Name
##oci
txt
ear
changing
##older
external
prom
callback
dll
Sim
##IBC
##arter
exactly
##IO
ffff
##flow
interest
Verified
Date
rs
pretty
##ECT
variable
transaction
##under
2009
poll
Status
Debug
standard
##iff
##amed
##Inter
built
Mark
resolve
verified
v1
global
types
general
word
media
little
##001
##Comp
opensuse
draw
alloc
##plicit
requested
displayed
##arsed
libQt5Core
worked
bash
##orrect
Gl
##ESS
RPM
##XX
##To
##PL
book
opened
##clar
manually
##Sc
94
##ango
headers
Gener
final
USB
##aproject
##Provider
fedoraproject
##ndex
##man
##US
GLIBC
##f3
##b6
##GE
bool
schem
Default
crashed
NO
##rite
##eph
year
getParsed
81
parameter
getParsedLog
kill
creating
NS
terminal
##anged
##umm
icons
failures
DB
2006
##inding
HTML
##Stream
168
##come
continue
particular
keys
##peration
##bian
permiss
merged
Should
adapt
shut
power
##f5
Aug
0x3
2008
##entic
##ocal
pix
##QL
plug
##yc
##EC
120
Ret
vdsm
##ias
today
jun
71
entries
##elds
record
##esh
constr
View
IR
raw
pulp
directly
MB
75
likely
libst
##reg
##eman
usage
pip
p2
unable
trigger
QA
##IE
actions
##xr
Ev
##ential
occurs
##ring
##light
Product
dump
Gr
##etaObject
ThreadWeaver
Found
64bit
Use
jobs
argv
None
2007
libp
##cing
loaded
Resource
##Process
Apr
dbus
replace
##though
##ocket
##rote
said
detail
big
##aries
Sec
digikam
Feb
theme
workbench
performance
pool
CL
ACPI
std
##Dialog
##files
##etimes
progress
Jul
Host
##ott
##chn
protocol
however
One
##IS
anymore
##sd
##umer
69
QThread
IDE
##ref
##onob
rout
##trl
scripts
78
##ision
Call
Py
##ainer
eu
##herder
##mar
mochitests
##ffice
compile
mutex
##EN
live
192
##ursor
necessary
82
140
dro
68
proc
0000000000000
##tens
enh
serial
##osed
##f1
Mem
##Render
##roy
##cceed
week
##kon
parse
caused
cour
length
Agent
design
85
89
dock
61
commands
pad
Gnome
##ump
keyboard
##usion
##ross
##Listener
Imp
brick
Ph
mirror
##00000
aud
slot
drop
##ayer
uint64
ulong
Failed
libstdc
Col
kvm
AL
hit
##pond
##ctl
startup
easy
Oct
ens
wrote
##olved
##ram
inside
HTTP
applications
store
##inder
List
foo
##Source
pa
eval
##js
##outh
certain
##ully
##Ag
##AAAAAAAA
integration
##f7
cs
kon
##04
##ts
says
actual
applet
1y
##Qu
##ives
making
IO
##alloc
area
##Exec
reboot
##abil
locale
##Server
Some
##Not
attribute
win32
debuginfo
starting
commun
junit
shouldn
76
Pack
refresh
128
associ
visible
treeherder
sources
fonts
##efined
invest
##rd
kr
whole
cap
care
upload
anyway
##jor
requires
92
RC
prefer
##als
##uation
##ired
##ategory
ssl
##TY
origin
73
##Runner
##Content
##icks
course
Will
haven
##wer
##ness
inde
mk
##idden
QMetaObject
##ze
##Time
define
113
##spec
notic
##rita
Bundle
##ecks
##cut
Develop
snapshot
##underbird
moving
language
cdt
##osure
##Flags
##bd
##ignal
ready
##erge
##OG
recomm
zip
##do
CA
v201
libQtGui
##Starter
dependency
throw
dhcp
Action
##crypt
102
calls
##LS
gmain
##Ad
93
##arget
Control
sam
completely
##opete
##ocks
NativeMethodAccessorImpl
3D
##EM
ago
##Key
##book
##version
##TC
basic
##dm
##upport
regression
##press
incre
##yr
##Value
##pad
grub
deleted
##Rep
Text
##ren
Att
##VN
priority
##b7
ldap
##CoreApplication
development
emf
##check
Are
##utor
SIG
logging
Compiler
Image
applied
HEAD
eng
Time
EclipseApp
##atever
implemented
quot
tasks
kde4
dependencies
##Plugin
97
row
77
google
gs
QCoreApplication
##ym
##rg
resize
come
slow
##b1
fig
scen
dom
##OID
##Launch
##b9
svn
calendar
##cat
SH
helper
##CC
sav
Lib
scsi
eg
0xbf
##icro
##ups
##andle
79
obj
##esktop
mnt
##pression
0x6
##ropri
snd
##rash
Sep
##tern
succeed
column
##BA
QWidget
Mod
contrib
URI
##abel
plasma
fault
0xffffe4
##ops
hang
##Table
away
##DS
0x00002
Exception
investig
minim
successfully
##bm
noticed
##rt
##eters
rules
total
##of
parser
configured
##2d
##onobo
dyn
wor
gz
zsh
native
requests
waiting
priv
##CTION
##ption
CC
enhance
Let
0xa
1000
syn
person
worker
NetworkManager
qpid
somew
##SD
cmd
##bu
comput
summ
##install
kio
iteration
##Node
vul
QString
##me
sd
67
fill
history
##Tree
links
reset
Weaver
##ively
jav
##medi
mp
##wd
written
##isk
consist
##atic
whatever
ann
posted
##tenance
##adi
##Col
Data
##root
rhs
certificate
##loop
TR
cur
Trace
Android
Progr
##PC
tom
es
prevent
adaptor
seeing
OR
openstack
evolution
fields
obser
news
##tool
##03
GNU
##OP
returns
##east
cover
android
##orth
EclipseStarter
rc
##closure
cb
offs
methods
References
day
Fl
fast
causes
feedback
provider
ftp
den
clients
##fl
VOID
Connection
UTF
notification
Select
AT
##resent
##dispatcher
##aced
##acy
gdk
##Act
showing
##Connection
insert
assum
bund
Author
appropri
functions
Sat
height
co
freed
functionality
unsigned
large
including
committed
three
Up
##08
cop
backtrace
drivers
perhaps
##ctions
##abilities
introdu
##igning
##Po
256
Intel
0x0000003
pick
Looks
according
unit
##enk
##Operation
dl
undefined
##NS
month
explain
modified
selinux
001
##ued
Click
ebuild
img
Key
Service
Inc
##grind
##eline
sshd
##oom
difference
##ples
fold
##try
special
CH
##upp
sendEvent
##With
compute
pam
checks
##bc
##thers
##utton
##ansh
##MB
Dist
Deleg
##DF
Why
Unfortunately
nightly
specified
scan
Jo
annot
ir
explicit
Av
AS
91
toolkit
##ons
##ips
##ident
0x00007ff
assume
leave
registry
generate
hasn
##tap
##ellite
audio
elements
0xffffe410
##Glib
kwin
##2c
Remote
104
specify
##ffic
##uth
##DispatcherGlib
##wait
##istr
hint
takes
##avid
sat
bz
qa
##bf
nov
##elper
##ios
By
##Document
##ifact
##client
repos
position
finish
tog
entire
##xxxx
##9e
unless
Problem
##to
loading
seg
kub
major
##Mon
improve
vulner
ES
ports
##group
answer
solve
##SION
##ounter
acpi
talk
130
libr
2000
ipt
##imp
removing
##PEL
ensure
notice
hal
returned
##rowser
looked
allows
subscription
##anshee
##Client
contents
classes
systems
##uk
nv
TP
forward
##pective
AM
therefore
definit
nodes
##ai
received
These
drag
ep
##connect
##udio
##Unit
##Path
Client
split
others
dy
Desktop
cursor
##2e
##ike
##At
##witch
##ances
management
##5c
watch
##go
##ides
##d64
##vc
Worker
##ycle
docker
hash
##Bu
offset
products
##atello
threads
array
raise
Code
operator
pur
land
matter
valist
##oolean
##GL
destroy
##3c
Change
tracking
systemtap
approach
ppc
perf
##ran
hour
vfs
FIL
rpc
##edit
##phin
##class
KM
tabs
Win
sometimes
lif
##IME
Added
cou
maintenance
##ynchron
NT
##Frame
card
##Input
Port
##Read
Delegating
##v6
remember
EPEL
installer
ERRATA
south
Request
NAME
QFlags
Well
Command
##Image
##Resource
appropriate
b2
low
##olphin
##Flag
activity
##AGE
Loaded
##ositories
##izing
stage1
force
##andom
goes
PM
opening
known
##quer
Inst
mapper
##110
incorrect
112
characters
lookup
vir
Gu
##dr
##Pool
bridge
##ttp
prefix
lists
manage
tick
shutdown
mochitest
##elp
##tension
122
anyone
##utions
Cor
0xbfff
ones
109
##mo
range
chain
Tools
Out
##TR
comes
172
debugger
##alk
##1f
affected
2005
r1
##mod
##Des
Wed
##ario
buf
##server
FUN
json
##perty
##part
moc
##LAG
southeast
wonder
##autil
navig
##icense
developers
reporting
##oll
##order
adv
##leep
sda
##Request
binary
Down
pref
##osite
leg
begin
virtio
sql
0x82
##586
pod
Push
ko
##autilus
leak
saved
149
filename
##By
They
preferences
toolbar
abort
##uck
Dr
summary
objects
xp
clicking
Framework
happened
notes
modify
lvm
taking
submitted
300
includes
webs
super
strings
##2fs
##where
Backtrace
##Base
##MA
sur
assign
views
108
##Module
Sun
Module
buttons
Would
##data
UP
mom
sto
obvious
s0
##Script
occurr
iso
authentic
##Launcher
immedi
##ottom
##EA
USE
partition
##lier
intel
defect
commits
Return
SSL
Report
##widget
103
oc
ge
Document
Did
Det
Final
##attern
##Trans
tcp
VERSION
Dan
pm
Bus
##gres
##Size
##nable
exe
rule
hope
##test
##FAULT
##cont
ceph
vendor
async
hardware
##09
Read
##mbed
cam
##System
qthread
##ded
AR
associated
##EventsFlag
ignore
wasn
##ros
##Hz
although
##cated
FUNCTION
sr
##ibly
tok
##KS
##ites
often
Checking
character
minutes
##ric
##queror
EC
##got
meant
106
##inition
speed
tags
ant
##ATH
##abling
qeventloop
2004
OB
##Rec
##sing
vg
mob
filesystem
##YPE
qcore
##ised
0x7ff
##hci
dc
ama
ProcessEventsFlag
Internal
##rict
Ident
Moving
krita
##Reg
##ught
##ta
##irst
css
##xygen
##5e
MA
libgnomeui
expand
choose
creation
##side
Exec
##ora
named
touch
folders
term
groups
WIN
meta
##cloud
NET
##claration
##ause
EN
##As
regard
clock
gstreamer
ps
EM
validate
instru
params
qcoreapplication
##10n
starts
Access
yast
131
manif
##yrus
catch
compl
##HT
##uppet
merge
reading
##quence
##estamp
eth0
asked
##LAGS
##pack
happening
handling
##F5
##agn
repe
BR
dylib
mix
runs
While
listed
##Changed
##konadi
BO
111
execution
timer
Arch
Inbound
##shell
pkg
Ass
katello
glib2
schedul
Hello
##ilest
True
0xb7f
encoding
couple
##Pre
##weaver
Development
tri
keyword
##Project
shortcut
nb
##eet
moment
Chr
##Message
qapplication
1024
crit
##PS
##amic
##──
mask
argc
##IZ
Ref
detected
freedesktop
##ecore
##aptop
parameters
Acc
##cm
otherwise
##ield
unlock
cli
Screen
##aris
repositories
preference
##right
KC
c0
developer
0x01
compiled
##7c
##mark
##anced
postgres
mysql
enhancement
kmail
##just
##3e
fixing
##VER
construct
##ats
##3d
Ctrl
easier
##html
ON
##mer
lost
ansible
migration
addr
Task
gettext
Gluster
wanted
Engine
Spec
Look
httpd
Search
TPTP
newer
distribution
##802
bits
pot
##arning
glusterd
anal
Editor
##5d
QEventDispatcherGlib
proposed
km
##olume
discussion
##rie
##most
##On
DelegatingMethodAccessorImpl
Copy
##iling
##ernet
##Task
##Child
RHSA
##iB
##Internal
arguments
0x00007f0
More
##ipped
condition
##UIL
##eak
ever
##Workbench
bottom
Debian
bt
func
##Selection
##Bit
##agram
DV
Memory
##IM
Reading
sounds
##002
Plugin
delay
MES
Link
fedora
0x55
0x00002b
Init
##pector
##ntax
wizard
Cannot
##OST
easily
mobile
##ERN
qeventdispatcher
##rel
manual
est
remov
fetch
SEL
servers
##008
##9c
Users
Err
##768
minor
waitpid
UTC
Assert
wl
##ETTY
amarok
##193
##ilation
KW
Committed
##link
##marks
jo
##anc
replic
collect
##ina
exam
artifact
123
downloads
##7d
##change
II
##7e
cod
JB
##clusion
PRETTY
000000000
##Get
Packages
Adding
gecko
Kon
##print
##scape
preview
concern
blank
l10n
##Dispatch
cancel
##imer
SVN
popup
community
##ators
metac
ws
512
##isc
collection
000000
hw
0x7ffff
respons
gpg
Currently
MESSA
md
##vas
Management
situation
##how
succeeded
filed
##Call
##Box
dot
Right
SO
##GB
bundles
assertion
##imary
Handler
prompt
##uds
foreman
##tributes
graphics
wouldn
##api
Group
##Device
somewhere
cn
zy
random
CM
indeed
##actoring
wst
##NTR
EclipseAppLauncher
figure
earlier
##Wait
##enkins
##INFO
##EF
##tribution
Perhaps
##Container
##udson
invocation
214
0x00007f4
loader
##appear
lead
questions
valgrind
installing
##wxr
##mt
##TW
##acing
##Layout
NSS
4096
##ends
occur
corrupt
altern
aren
compare
Wait
Fe
##lyn
permissions
##Group
birt
hack
##DIR
##ceptor
Gentoo
Rec
Chang
override
amd64
bound
##402
validation
swap
Software
mind
Pushed
refer
ibm
dup
##hi
##Tab
##umbers
##glish
Program
##sa
##vironment
##640
cleanup
##Sp
ic
containing
114
##Web
##ters
500
mailing
##arm
hosts
factory
Repository
scope
xpc
##3a
150
Invalid
body
scenario
ran
Distribution
Plasma
libraries
Import
fam
Only
##pa
black
##enn
puppet
fx
##bl
##git
##urning
samba
##644
causing
##ique
publ
regular
##v4
uri
Transaction
Simple
##000000
evalu
220
suggested
addition
Tom
depre
Beta
##orer
Thunderbird
MO
frequ
##anis
years
updating
##AY
Makefile
##pare
GM
##Rendering
##Index
##1c
owner
suse
##ponding
xul
tracker
worth
finished
Track
##Stack
##EG
autoc
##Builder
BUG
##PR
supposed
0xb4
everyone
##ector
413
Fin
##ij
calling
cloud
115
##ername
iptables
##8b
Don
##ering
Information
cand
safe
##Form
confl
##aks
0x10
124
##head
EX
Starting
SLE
Download
Mich
Unable
##sat
abs
Virt
##raph
ec
allowed
Ca
infr
##vg
##504
laptop
##posal
ut
##atal
couldn
chk
namespace
Storage
Http
##idia
older
Base
##7a
suspend
Which
Dig
Launch
krb5
##Edit
##iddle
##ifications
David
computer
##tructure
Model
lack
##exec
##aming
##ael
b2g
wish
tm
##cul
mm
cell
State
SY
xine
##bot
134
##Add
variables
##tings
Edit
overl
##709
convert
107
highlight
immediately
0x0000000
Bas
777
prop
conflict
105
Stand
hot
##etty
DS
##ogn
dead
udev
##atabase
bo
##URE
definitely
##ummary
adds
thus
sample
Form
plain
sudo
##criptor
##IEW
completed
False
blocks
0000000000000000
Sl
near
##ypes
distrib
gf
##otal
references
assigned
become
myself
paste
gt
Pers
##DD
connected
orange
##ssl
##any
##RenderingEngine
##utter
PartRenderingEngine
##ddy
##1d
##FOR
##004
SDK
##Store
milest
corres
deal
spot
##report
SL
##Adapter
##Utils
NFS
##1e
inf
##ACK
addressed
##kB
##UE
Mono
##eless
rm
##andr
almost
##specially
EL
author
##fortran
libgstreamer
gives
points
0x08
automake
zero
amaz
##Helper
uname
204
0xb76
BUIL
Stack
##ivity
uid
##Button
breakpoint
ds
##Status
rss
##yper
READ
registered
boolean
BZ
##hn
0x5
schema
Val
##6e
operations
##using
160
0xb77
ipa
Fri
Sever
##128
Ke
Component
0x00007fff
##aded
ubuntu
nobody
paint
##etype
##els
SER
ren
##SQL
0xb74
sleep
##All
##6f
##ited
Sch
reporter
216
##ret
##804
##eff
cclosure
Som
managed
##CL
pdf
mime
Remove
building
0xbffff
Identifier
FIX
numbers
##bum
outside
Bl
gmail
took
aspect
##304
##EE
##509
##Proxy
##ium
##2f
trust
##overy
##Contribution
First
places
##Monitor
GI
nm
pango
##ants
adjust
Verifying
SR
alias
##808
##run
hostname
member
##Out
##EY
##Socket
Tue
represent
optional
hidden
REV
synchron
ticket
##faces
##cash
possibly
##ategy
signature
postgresql
Security
##VED
tty
viewer
##URL
LIB
nf
token
##CA
##px
stopped
pde
##by
forum
##ONE
##Ref
archive
region
##Vis
caps
##PORT
##Str
Your
##ater
LOG
PL
suspect
LD
kopete
Real
usually
techn
multi
##apping
##ossible
##chanis
maven
##6c
firm
Thu
##plugin
##Kit
elf
manifest
377
##viewer
##Dir
quit
instructions
pending
writing
##Parser
alph
soc
##place
##Session
Attach
gconf
builder
went
TO
##IST
warnings
various
disappear
Tree
Summary
javax
auditd
Orig
hda
244
##TFIX
I200
##8c
men
##2a
##buf
translation
##Folder
##vfs
mono
Andre
Workspace
##Cache
##ifi
136
la
pressing
Tab
discover
RA
##IOS
126
temp
happy
rename
reload
Got
##wards
##ubuntu
deployment
center
##014
250
recommend
##R6
##umbn
##ptions
##Menu
sem
##Control
##active
##1a
##TER
##unction
Same
164
saw
##208
Errno
failing
copied
fall
##ipping
amazon
IRQ
DVD
236
timestamp
Another
examples
machines
##Th
0x5a5a5a5a
##aST
PATH
linked
layer
##Result
0x5a5a5a5a5a5a5a5a
recently
receive
sty
##Handle
el8
chance
PC
tro
provides
##384
##irectory
EXT
libb
Updated
route
##9d
WON
116
Submit
##olicy
kde3
##Date
Working
Controller
Python
considered
Free
##ung
##100
Once
backport
dialogs
##904
firmware
##550
Kernel
gen
iterate
2003
saying
Boot
##expected
middle
##iro
depends
v200
emerge
interesting
logged
redirect
##Start
IB
##arently
num
##iod
Configuration
gdm
Requ
Local
##att
ks
structure
##urora
137
Virtual
LC
artic
Actually
nautilus
solved
##chitect
jenkins
0xf
##Version
Rece
##eah
MESSAGE
libK
WONTFIX
##IZE
##IA
##uz
tempor
hop
Size
emul
##9a
multip
TH
pki
Still
gimp
REVIEW
chkconfig
ss
along
Be
##PG
embed
describe
##md
##acle
##ml2
gobject
##esg
v3
##tructured
##ART
##boot
##Binding
##Proc
imported
nor
Shell
##ences
defaults
##ission
Banshee
Traceback
qobject
##From
##Upd
Have
directories
white
fully
previously
##aft
Cal
ec2
##ournal
##608
##012
primary
##Query
transport
##acc
##rh
i586
production
YaST
##ivid
##oto
NEED
logic
browse
Loading
##err
##soft
400
Regards
##attr
restore
Warning
his
##code
##Line
fc6
##JECT
occurred
servlet
pipe
##4b
##Default
274
syntax
anon
##8f
crypt
##clude
##Entry
sets
##rection
redu
##orro
Autom
gone
Standard
provision
129
Bec
##write
wrapper
accounts
definition
libKF5
templates
##ierarch
XP
Connect
##editor
END
hours
forgot
QThreadPrivate
##arily
##390
##Of
strange
maxim
##6a
##Reference
experience
tomcat
ce
asking
0xb5
##ette
tp
filters
##au
##br
compatibility
len
##plug
viewers
Even
Post
QtCore
2001
mechanis
##anda
##roker
##204
##999
JDT
##CSI
##MTP
blob
##wh
##aml
username
KB
snipp
Severity
listen
##mentation
dv
gsignal
##Develop
parts
0xb72
rg
switching
backup
##script
##888
DH
dmesg
supports
Satellite
##inc
decl
pattern
certificates
##fficient
rob
breakdown
retrie
Sources
FILE
210
scr
##LY
##860
models
taken
Because
##Lock
sched
PH
Index
GET
coll
handled
sender
nova
BIOS
scre
##bers
gnucash
Ap
somehow
deprecated
SuSE
idle
simpl
Files
##800
##legate
inclusion
##Chain
resize2fs
releng
##win
0x84
especially
##stat
milestone
Micro
sss
DR
EDT
##202
clar
disconnect
transfer
##manager
##ACE
##erver
KIO
##aim
bonobo
260
Show
##DA
rd
##cluster
locals
##864
135
eff
cups
libkde
##ooth
Job
Pass
DEV
##6d
##icult
reproduced
##lying
##gress
##poration
attributes
classpath
pap
TYPE
ping
PK
libd
confirmed
pict
##uc
Library
statement
helps
##8e
##ermine
dbg
##GV
##Inv
suggestion
##704
irq
wants
indent
##ATION
##ams
annoy
132
revis
xr
Mail
##agment
amount
##usic
Cre
sending
Cent
gui
##Property
denied
Available
Brick
DEFAULT
toolt
PORT
kdevelop
##perties
Anyway
##ination
##104
clicked
253
explicitly
##pin
tries
recogn
difficult
imap
border
117
##FLAGS
##acker
##Interface
##astructure
threadweaver
mist
authentication
Table
printer
##Change
category
Address
##empl
hosted
adapter
proced
scal
##sec
rpms
X11R6
0x400
152
WOR
Corporation
##Back
##forcing
metacall
224
Target
libn
##ven
##ysis
impact
QT
##Controller
AST
role
527
protect
TE
##408
CDT
##UID
critical
##eme
##IQ
##ContributionItem
paths
stored
kdeui
RPMs
Oper
weeks
compatible
##sg
##essages
##lers
extract
konqueror
alt
append
fresh
##404
san
##rics
##HO
jetty
254
heal
RHBA
helpful
He
##ABLE
interrupt
##Configuration
Perm
Save
KCrash
##asing
malloc
lower
online
##aker
determine
0x00007fb
effort
Settings
Techn
dynamic
perfect
##kl
##onf
180
##adow
Assertion
Over
Page
instances
##elines
##ires
phil
processor
inode
##assigning
processing
##onon
234
Ne
English
Subject
thinking
##ades
car
VG
Manager
Rob
qc
Tested
Reference
##amon
##4a
Tool
##cons
6b
children
##NC
##Select
Ind
##umes
catal
identity
0x00007f8
##ALL
Frameworks
0x000
##land
uuid
cached
eb
months
FR
bookmarks
##NTRY
cook
sdb
Total
Dani
##itive
located
##328
aware
##Condition
Sn
customer
createAnd
0100
BTW
reviewboard
editing
Node
353
##212
downloaded
xpcshell
Gn
SHA
linux64
##ICAL
##tocol
##stance
kmp
##ainter
##efully
##4c
cfg
skip
##Bar
##ORA
Safe
f2
Factory
nbsp
rsync
2F
ISO
Marking
createAndRun
diagram
##06
##cell
##sel
shar
##force
Browser
hudson
FED
consistent
Seg
zypper
215
0x81
together
##ided
##ierarchy
Hmm
confusing
144
afr
align
FIXED
encounter
##Open
world
##ERNEL
FEDORA
gedit
##Map
calcul
busy
sens
locked
concurrent
rebuild
BUILD
##start
td
md5
reject
qt4
capt
##istration
##ene
front
refactoring
##Wr
118
ppc64
completion
light
becom
twice
Category
##ionette
##803
corresponding
0200
conn
period
End
##648
4294
stats
##Servlet
perspective
Received
Ac
socorro
cross
reasons
Every
##EB
##user
CRIT
elfutils
EventTable
##Dis
Structured
r2
##05
Initial
introduced
2002
Lat
href
##ones
INT
GUI
##112
##irc
checkbox
GB
expression
##VC
##206
##144
##kg
hor
DOM
##ptp
camel
TB
ur
##gle
mechanism
Mult
sequence
##Pointer
MSG
hide
mapping
suite
##oser
Custom
##Code
##iving
Di
kick
##018
##ipe
libxml2
platforms
0x00007f2
PDE
##168
##etwork
openssh
##324
replaced
##Component
##env
##gy
##AVE
##BO
##ean
##OCK
##ha
Google
276
##Meta
sssd
yast2
##368
blocking
Last
IE
##016
offic
incomp
QApplicationPrivate
Seems
SIZE
guide
maintained
##708
##308
Cert
openssl
##verted
akonadi
sect
normally
##Or
EMF
##td
Ant
##peg
byte
SE
##908
ffff88
133
##344
##015
##604
##izes
##ustin
interfaces
##ancel
sdk
##Executor
Rel
GLib
soft
##ology
xv
##wall
addresses
passwd
matches
advance
##uted
reser
xs
##entially
##IFI
Reviewed
##letion
##azy
Graph
Hard
individ
121
417
buildbot
##asero
RESOL
initialize
prepare
Ext
coming
##ester
remaining
processes
bricks
investigate
##HTML
##chitecture
186
##runner
rhev
Null
tun
##adoc
unl
intended
hyper
journal
Sync
creates
Line
lv
tables
ia
##aaaa
##ANG
Environment
159
exited
##uge
##irty
ae
Depend
125
543
Compiled
##ummy
Synchron
##003
404
##essions
##PA
##ponse
fds
life
##CB
persistence
catalina
CRITICAL
hold
##fm
212
phys
##apped
arrow
corelib
marking
##Interceptor
SQL
across
license
RF
0x00007f6
tre
RD
assist
late
nspr
curl
##ClassLoader
138
##ascript
##Al
dolphin
Of
NM
213
rubyg
visit
automation
kB
##906
##152
hcd
exceptions
resume
##AV
##UP
fuse
bring
##etry
unexpected
binding
tptp
MD
##format
er
##web
weird
WorkbenchPage
##944
##Ab
##elcome
Screenshot
sil
tex
##▒▒
Runtime
abrt
##102
##plays
##stable
bindings
KWin
ignored
cvsroot
##office
##An
taskcluster
xl
##pth
arm
##968
drm
qcow
##Lib
##006
libtool
147
behind
##grade
FAILED
##Shell
subject
Done
Power
##409
PS
absol
##119
interested
##ForWork
Filter
ast
logviewer
IBM
join
##AAAAAAAAAAAAAAAA
words
encrypt
Rest
remains
##Init
automated
Composite
verb
noc
##ferred
Team
blue
##xis
##ges
##amb
bro
##qi
prefs
QP
dash
##fully
139
thumbn
##ologin
##CR
##dump
div
##Instance
turned
##WaitCondition
##Local
zoom
blocked
##DM
blog
referenc
##928
chat
rhq
142
kdebase
inspector
har
mag
QWaitCondition
##writ
Database
targeted
##imate
##ding
Context
##process
OPT
Sol
252
basically
flow
ts
##Gl
Manage
aws
##909
##asm
Digikam
##702
batch
##Label
certainly
##umeric
PlatformUI
Otherwise
##ested
atom
pt
##greg
##oded
matching
discussed
effects
annoying
branches
Alt
smart
##era
connections
##oken
##yan
##Failed
##Processor
Invoke
rol
Instead
r3
##ood
hook
##ARY
##Ar
ci
7f
fav
micro
monitoring
230
##ka
Session
##mount
##UM
obtain
CSS
triaging
##738
KEY
##artin
posix
Michael
ability
SSH
charset
Cap
Number
##reci
##item
##itions
applyForWork
publish
##acon
##508
raid
ActionContributionItem
##902
cred
##csi
opin
decide
Console
Ob
##728
655
third
211
grab
##ibern
##image
##he
permission
der
qcow2
handlers
##auth
initially
##yslog
##Check
##348
createAndRunWorkbench
##Tool
timedwait
##amonkey
libexec
##07
0x00007f9
##console
SMP
upgraded
prof
##ounds
Help
ruby193
annotation
rad
##Activ
offer
displays
Driver
bec
mylyn
169
Pub
Details
k3b
editors
unn
instant
##arc
qt3
Valid
##pim
executable
vi
0x11
menus
##kk
migrate
Move
##gor
documents
AP
ALL
##ien
decor
##condition
##plorer
flash
##Url
fc2
alsa
complex
##1000
##font
kate
parsing
strict
Realm
nologin
##iven
Active
ie
##Ass
talking
156
##706
##unc
req
##adeon
languages
follows
issued
Looking
TLS
Segmentation
##reak
##323
##anner
RUN
iw
Extension
##window
##108
Input
appreci
obso
becomes
##awn
reasonable
datab
Sk
##ontact
##anel
Gst
##sum
bod
Services
helping
##806
FF
162
Tim
##athy
choice
fri
selecting
listener
311
##ana
##ppler
invok
broker
shot
##utron
xtext
alpha
##sequ
##ICAg
triggered
146
429496
##actor
ham
0x00000
Oh
Ge
stay
CS
NEEDS
Vendor
##Sch
flex
finally
df
##Wizard
ecore
topic
##Extension
missed
##013
UML
Option
I201
tst
KApplication
##005
LDAP
Both
##RT
##p1
DIR
##Point
Trying
##ENT
nic
##848
##Queue
##vable
nvidia
ben
AND
profiles
##Bundle
##etime
0x88
##406
signed
sg
saving
IDEApplication
##ili
##ymous
initrd
alert
##922
yours
rubygem
themes
ext4
came
##106
IRC
##IFIED
##kb
##mi
Apache
##822
proceed
risk
kdecore
unstable
##Array
312
PID
##attery
anim
MOD
0x00000001
##203
##Su
virsh
compress
purpose
freeze
UPD
##ldap
Miss
##screen
DL
website
entered
##proxy
##BSD
IMAP
Collection
RT
misc
shadow
npt
clip
rsyslog
Sm
##Mouse
Alex
##iness
##yz
kdelibs4
Evolution
WORKS
0xb73
##oint
subversion
python3
consum
##MO
reach
indicate
0x28
visual
##528
##type
##iri
145
Em
apparently
##248
##544
0xffffffff
cy
##ores
##aff
Testing
analysis
NEEDSINFO
ipv6
recommended
severity
##ne
syml
jre
Subs
##lab
scale
##CEPT
##Block
individual
##Buffer
##744
Bad
REL
##011
##Gener
vert
cast
dns
##007
RESOLVED
##309
rid
##303
143
GC
quickly
Christ
quota
148
##Ind
sites
##orrow
##oland
##bed
##Hard
##cal
meaning
##jb
programs
Str
##icode
copying
##103
##arb
##ThreadWeaver
Yeah
tid
##atively
recurs
early
MIME
PROT
rendering
##DOW
zone
Need
libgdk
LIN
DT
half
retry
##446
libKF5ThreadWeaver
##olving
deleting
jst
rate
potential
pane
accessible
##Host
mounted
JBoss
gfortran
van
John
##mpathy
##II
debian
##Package
##Link
Org
##match
knows
##que
mostly
##omas
syscall
USER
0x12
logical
##JS
Min
nptl
mp3
Max
Switch
Menu
Resolved
konsole
Admin
##4f
fair
##illes
Pa
0xc
nil
combin
styles
##RA
Versions
MacOS
imag
Most
General
became
StructuredViewer
##4e
RAM
Leap
##828
oss
dummy
Ko
##Children
##789
Path
STAT
GDB
rhe
odd
##Dec
IMHO
libns
0x20
album
202
Original
legacy
176
##Sub
##inger
upon
##306
##Strategy
hangs
##Mode
frequency
Gen
##ouch
177
Ma
TypeError
##IV
kdepim
##gg
official
decided
##args
slightly
##Repository
jsm
##zone
141
##0000000
rhevm
hy
libgu
complain
IC
##API
locally
fit
##ahi
##gui
##olus
##esterday
caught
##oder
##ws
sse
##page
155
regarding
##esa
yaml
##Reader
keyring
##angu
SCSI
##Virt
##abber
##efore
712
##606
STR
Sw
About
##ODY
unfortunately
jpg
proposal
guys
doxygen
##647
##aves
Timeout
##ji
rect
fac
##948
##elog
tooltip
Changing
flush
##broker
sufficient
##omuk
tc
##18n
bodhi
assuming
requirement
##Next
hover
inher
##trfs
##209
##hip
##503
##ycho
##Domain
gif
##ftp
gfs
Sy
snippet
hp
316
ahead
KMail
355
158
Find
##oup
lb
##yth
##java
unique
AB
nsI
abstract
##uet
##DC
clearly
JavaScript
certs
overcloud
addon
UPDATE
mock
requirements
185
##Target
lt
##acity
##andbox
pin
depending
##Search
154
Play
Missing
signific
declaration
##ibernate
KDevelop
activated
0x86
##wr
##rot
##009
Gnu
##hib
XF
WorkingHard
WorkingHardState
##748
##GP
autoconf
buildname
##609
DNS
##cast
ctrl
##RO
executed
Enable
subscrib
##dbc
##alle
232
##207
##302
crt
Chrome
opinion
##fffa
##602
Configure
nl
codec
##search
##derr
0xb75
rot
fifo
Therefore
##Widgets
##ICE
notifyInternal
PDF
aj
article
##ennec
solves
v4
##Post
seq
333
##809
NV
##otype
lots
kube
##rec
##ley
ways
brand
smb
##FORME
NONE
suggestions
Auto
0x14
##iance
manageiq
##erate
BODY
limited
quer
organ
Met
##807
##rpc
attempting
Although
unlocked
iustin
pain
##Root
Dolphin
##domain
##emplate
##Int
WORKSFORME
##ireless
TEXT
##Rem
Started
dropped
sqlite
##AndDispatch
##INT
nocancel
CT
##UB
##slt
##554
##arn
Next
WM
##Progress
GA
btrfs
pixbuf
##v3
thunderbird
GS
breaks
##Qml
ud
600
##hand
WTP
gerrit
schedule
##568
rhsm
Foundation
vulnerabilities
##TH
cfme
anywhere
AssertionFailed
initialized
##Le
##alone
196
Notes
##ologies
314
##Channel
notifications
invoke0
##DER
temporary
screens
Martin
bis
SP1
##705
ix
significant
attr
##umn
REPORT
##903
members
##Async
jdk
dd
##iph
##vol
Good
SN
##EV
Guide
readAndDispatch
Getting
##ocop
##Vari
ini
BundleLoader
##322
##aaa
scl
0x00007fc
License
##atcher
##New
##305
##403
strong
##405
gd
##lem
##Update
neutron
Preferences
##506
HOME
columns
CMake
Info
##bt
jump
153
##uetooth
##xp
##pr4
battery
##603
family
##SC
##def
strace
##na
##805
unused
##apps
##struct
Dear
Kate
printing
Query
stderr
##loader
upgrading
277
##xxxxxxxx
thank
QS
gp
avahi
42949672
##char
multipath
0xbff
providers
##ahoo
HP
##Storage
AFA
beginning
##gt
emulator
Handle
spam
##string
##QU
IF
dri
disks
COMP
impossible
iscsi
CN
revert
ORBit
centos
MOZ
propose
suppose
cv
Print
##otos
exchange
ENTRY
arbit
communic
Gre
##ZW
regards
Delete
Ah
##Are
##ifies
Basic
medi
minimal
Param
##sers
##905
qml
et
respond
##iding
ManageIQ
relative
##CO
##alance
##f86
##346
Microsoft
overflow
locks
constructor
##off
##Main
0400
totem
PO
##Count
dht
libnspr4
translate
##ERT
el6sat
##242
cairo
constant
##semb
JRE
obviously
lu
##EGIN
##ernetes
anonymous
##502
spin
##main
inject
POST
##998
##oney
194
##703
uninstall
fatal
##105
0xb79
colors
TCP
picture
##139
##ython
##uing
channels
snmp
staging
##Over
##IK
##726
Kopete
miq
##ulate
##ASH
metrics
##cer
##verter
##mf
stuck
translated
tomorrow
squ
warn
BEGIN
satellite
8b
##add
sas
##aconda
##ival
differs
inline
##zy
controll
##eader
##154
##Mod
##iter
qual
##746
##Buddy
propag
Cache
cach
##mental
experienc
Output
pcm
##558
Attached
##lim
four
trick
Inte
decision
##Wrapper
##244
sed
involved
Where
Icon
green
##ents
blocker
ACCEPT
##844
##gorith
170
edge
##NG
playlist
AssertionFailedError
SUB
248
yesterday
Tw
##bind
referenced
##olver
206
apple
Mike
Norm
dispose
##opt
autog
meet
activation
##205
##AIN
##aking
##visor
##inderbox
START
FS
alternative
Reassigning
##fed
##Registry
recon
EST
##198
##VAL
physical
##256
##entials
##505
##comp
##884
glade
AMD
cycle
##OLL
##mitt
##outer
infrastructure
Non
geckoview
##allel
Script
##ira
player
##Java
javascript
##Case
disabling
0x401
RS
inner
autoland
Volume
belong
##552
welcome
face
264
pubkey
candle
transform
arr
##707
##ificate
Attachment
##OLE
Conf
applies
##orr
##foreman
theforeman
handleEvent
annotations
bll
candlepin
0x000000000000
Hardware
188
0x00007f3
mor
bos
##erc
owners
##ball
cx
##945
aggreg
Crash
##inary
vulnerability
##123
##776
##915
##ITY
vl
nat
##ecode
##uble
Upstream
i18n
##onc
documented
pay
pulse
##Imp
##c00
glob
depth
higher
addons
Chris
rp
Close
##erv
##ster
affects
utf8
##605
0xb78
prio
228
exceed
##WOR
automatic
##138
confused
kis
##anned
Und
##Output
desired
entirely
frames
obsolete
0x00007f7
##729
papyrus
accordingly
##waitcondition
seamonkey
qwaitcondition
Root
round
produce
##Kon
##362
Iss
phase
interpre
xfs
ideas
##407
returning
##wx
express
eventually
##Expression
pp
##Settings
Guid
him
SafeRunner
Example
##111
PHP
##new
ffff8
##349
specifically
qe
searching
##342
##erman
##Auth
ste
pract
tx
dont
crashing
262
deployed
##hl
direction
##air
Kis
##istent
##843
playing
xxx
288
dn
##eduler
##icon
Updates
minimum
guid
vala
##Tests
lvm2
destination
libxine
reserved
##118
##ordin
##246
##Valid
##Acc
Removing
libkd
terms
JUnit
##Down
explan
##907
##4d
gw
Thomas
##Runnable
##Files
##ivial
166
##522
chart
lg
##Descriptor
301
##ditions
libgst
PRO
PW
c01
##store
##Invocation
##InputStream
##dbus
trouble
##307
##326
mov
Signed
##Book
##chain
##lleg
fini
FOR
JVM
0x41
Ama
##ising
##upported
##x1
bond
hence
Def
##162
##165
Maven
Keep
##anguage
wrap
##158
##level
queries
NullPointer
##EX
mixed
awk
scratch
##Konqi
##top
##ZX
##strap
Del
##icator
##Color
##345
handles
locales
Live
##169
philor
putting
aeolus
##de1
pi
According
##Debug
FC
##hide
##148
##ounc
Activ
0x00007fe
reass
##121
JDK
##826
##opup
thin
BugBuddy
unres
tt
##116
##MS
neither
scm
##0001
Register
Selection
##AST
compilation
packet
187
##Report
##774
##ffects
##Delegate
ptr
0xbfb
EAP
##p2
Enforcing
pg
providing
##156
0x00007f5
002
openldap
mass
passing
##otify
##acs
DrKonqi
Navig
##ledge
Leaving
##tract
0x00007fa
##admin
199
sandbox
##Style
##548
jsp
NullPointerException
typing
giving
##Format
svg
Sign
marionette
##angle
libre
151
##leted
Tag
reviewed
lst
pv
discovered
0x00007f1
Che
##114
##ntity
Value
O2
faster
##queue
bunch
stick
0x02
##842
Creating
0x7fffffff
interval
libt
##Notify
nc
qwidget
t1
spaces
kubernetes
##raw
##ewalk
ey
##646
generation
##598
##llegal
##507
offline
##esome
regex
pushes
157
conversion
SIGN
cool
##722
308
SP2
##End
attack
incons
##rior
maintainer
##allet
##xml
##alf
embedded
bookmark
Removed
standalone
qt5
##ASK
respect
Perform
libm
Fx
cancell
smaller
plasm
possibility
REPORTED
218
##778
Jav
##IRT
keeping
resulting
##EASE
removal
syslog
fb
##926
Before
##929
libX11
0x00007fd
switched
Gilles
##spi
##stime
1d
##966
hopefully
condu
##829
dirty
##569
cron
wlan
##ube
Probably
##ecycle
runWith
bump
3A
detailed
##selves
unre
RHEL5
vim
163
actor
circ
deliver
reli
Deploy
193
ef
shortcuts
##cent
states
##Gi
##aid
324
spell
apr
##868
plus
0x00000000004
233
##366
##ctor
279
revisions
comb
wake
OBS
179
##Cert
infin
##ORY
##YW
lr
DC
##965
callbacks
openj
expose
0x408
##321
constraint
Container
el7ev
Monitor
GPL
Explorer
MSGID
Reopen
165
##UST
que
labels
exclude
boxes
##DR
md5sum
s390
edu
##son
workflow
##ORBit
##acewalk
208
spi
Sure
markup
gc
independ
198
totally
forget
determin
Comments
##124
Contents
##aut
##962
174
sym
0800
##istics
Common
800
##rell
##107
entity
##model
##oon
intermitt
aurora
IT
preser
hammer
systemctl
mismatch
Disc
Mat
##500
huge
##109
die
##191
##556
trivial
FAILURE
gthread
173
##lied
BL
LANG
Typ
rack
tinderbox
windowProc
203
extends
##Platform
##aneous
MySQL
##othing
rows
ext3
kded
identify
GIMP
##VT
semant
blr
ghost
##823
0m
quality
jh
##iv2
SEC
##Valve
Color
yourself
##etails
benef
scheduled
240
##bstract
##SH
Write
##akes
libORBit
dj
complic
184
fp
acqu
restarted
friend
##329
##UND
##ience
4294967295
##xl
attachments
307
##115
##x2
inet
Interrupt
##Renderer
nested
##GET
speak
candid
304
##mitted
firewall
##col
VMs
##station
inser
##946
GMT
segfault
libkdeui
##DBus
NSGet
##369
serious
panda
##enforce
Bu
libv
Dialog
##isf
Account
uk
##163
unref
##Attribute
##019
verification
00007
##Location
##Current
Compilation
EclipseAppHandle
secure
launching
increase
RC1
##ural
hibernate
Nothing
scheduler
Fast
Fetch
Works
SP3
##ital
##733
Directory
clarify
operating
##Declaration
##Screen
##aemon
##607
##iate
launched
##Level
##538
databinding
IMO
171
libbonobo
Confirm
##942
181
##769
capture
##122
##ITE
evaluated
Comput
##527
ioctl
##017
Password
Stage
kdes
HO
volumes
NSGetModule
Ben
Font
iwl
##ema
##969
understanding
##TreeViewer
series
packaging
P1
Diff
game
Block
atomic
Mode
overlay
scheme
##Office
178
claim
poppler
##Def
##562
intention
##737
radeon
##audio
perfectly
tray
##787
ends
##Param
ffffffffa
pd
##365
##ac0
Fol
Shift
nfds
##Icon
##142
vnc
Applications
Equ
Media
##ETA
ga
##882
270
Doc
##CD
Guidelines
##mgr
peer
meas
distro
##Lab
##798
ha
undo
Sometimes
libreoffice
##Found
##TS
kernels
copyright
ru
##721
Send
0xb70
actionpack
##Ptr
##YI
##825
FROM
Resolution
##tab
##325
larger
##Network
changelog
medium
reconc
bio
sidebar
ship
router
4a
##Number
preferred
##umble
webconsole
contribution
Internet
##etic
rhel7
##EP
oVirt
##It
##obile
##apsed
Clear
Cons
keywords
shells
ja
banshee
lsb
##Messages
##oa
Daniel
ADD
x64
Operating
demo
##563
r4
##dn
##monitor
DBus
##B2
typed
##642
equal
##327
Runnable
Given
sasl
0xb71
contacts
##Ob
dim
empathy
##reed
161
##Quick
sdc
followed
duplicates
WINDOW
rf
##rem
##589
Proposed
Wizard
Generic
##ATCH
transpar
##c000
Domain
ctx
libgcc
##GI
##727
Press
shift
##555
##ki
enterprise
attempts
286
##159
Vis
##tempt
concept
##astic
verbose
##FIL
##gmt
scrolling
identical
##irrors
K3b
Success
phonon
artifacts
intl
Am
okay
##IVE
Ste
NPE
##723
##923
records
useless
##uspend
lay
retrieve
##766
contained
##lo
##526
repeat
WeaverImpl
##eger
refused
drwxr
VERIFIED
credentials
##RC
ib
167
song
prod
consumer
pn
Gdk
##ino
canvas
##ining
##gers
nep
shipped
catalog
Steph
##529
##FilterChain
ug
extended
sos
##821
expanded
esp
##adm
##available
##ilot
clutter
pem
folks
BuildManager
##MetaMethod
##GS
prec
Lock
a0
##762
Enc
protected
receiving
generally
anaconda
0x90
Disk
Marc
allocated
heap
originally
advanced
resident
resolving
##hav
##XML
##ikely
##qa
dashboard
Serial
InvokeMetaMethod
##ab0
ml
##153
deps
##925
##133
basicRun
##User
##921
Hey
TIME
32212
##343
Ryan
##VDS
##113
gmane
##846
probe
libQt5Widgets
0a
Without
##Connect
##iK
##ECK
thumbnail
662
190
span
horiz
MEM
238
302
##649
##767
Ed
wondering
inform
Dependencies
0b
lp
ntp
unrel
enum
fork
##versation
Best
##151
##772
decode
arbitrary
##949
32bit
Feel
##841
EE
attaching
##Timeout
WINNT
##566
j2
175
Calendar
##v2
Resolving
TC
AUT
Xorg
burn
Our
219
##347
confusion
dark
OF
javac
archives
libgl
Modal
##OWN
navigation
checkout
emission
310
fairly
##Visitor
QAbstract
spice
##126
235
aspectj
Proxy
Moz
GObject
grow
##731
parallel
estimate
rhyth
##Wh
ia64
encountered
DO
004
Options
gnc
pair
latter
##Indicator
##363
RO
207
##Arg
corner
##aws
##WS
runner
##master
##cfg
leaving
##525
##oming
##error
##Err
GCC
##░░
##725
blk
Public
##libs
extend
##927
fed
##MENT
infra
symlink
indicates
##ln
##341
mistake
Kubuntu
fst
magic
regardless
dependent
libj
Button
Migr
reduce
##AX
endpoint
libpng
mat
Attempt
299
toggle
##pn
##542
##addr
Submitter
vdsbroker
acl
party
##338
Eth
##963
Busy
rhc
##849
mails
##183
commons
gi
##ftest
##KE
##uilt
Oracle
improvement
GitLab
##UD
xt
tz
##ITH
turns
Prov
fragment
subsequ
cookie
##────
SET
##specified
Solaris
webtools
Copyright
##jo
##645
##ambda
##523
doubt
DES
loss
Finished
Array
##isp
320
avc
algorith
##7440
SELECT
##pass
##181
equival
picked
Upgrade
stdout
##742
axis
Having
Genie
ESMTP
dict
ing
##ptr
Light
209
0f
boost
explanation
accepted
distributions
lic
implementing
endif
##mission
##achine
nvd
initialization
usable
Policy
subt
latency
Element
gemset
accel
Reported
vsize
0xff
configs
backing
0xbfa
Progress
libkdecore
##Up
SERVER
UUID
##Os
irc
kb
##UX
RSA
neon
##fre
counter
controls
Cam
opp
Allow
##ContextImpl
##947
##117
##job
mirrors
##Graph
wait4
Mount
secret
packets
##entication
compiling
##cache
desc
ii
Person
Property
El
0x16
Transfer
##189
URLs
##forge
##Scope
High
che
##player
rhel6
FW
##zip
vote
categ
maximum
##URI
utime
Okay
ModalContext
AN
##uous
Tests
descript
m2
##546
##settings
Engineering
stime
stops
cdrom
226
phone
approval
hyades
Has
neg
##table
Konqueror
##Tag
##arant
patched
##menu
Profile
WS
sv
SD
networking
##osen
##track
discovery
newly
##dec
Further
ClassLoader
##mbrell
GST
repeated
##une
##zen
##orrent
fore
##ebook
##mbox
MAC
##context
3rd
Rele
##827
##739
finger
ram
##Area
pointing
##apshot
hub
loads
Cluster
1f
xulrunner
##uf
SC
stub
night
rlim
##Met
##irius
##559
finding
245
libproxy
Akonadi
migrated
translations
##943
grid
screenshots
Accept
##filter
##verse
##e000
183
##enerated
recip
pixel
##rian
Cheers
nt
##ners
conditions
Contact
Audio
##ounce
dirs
Quick
transition
Technical
##ipher
##otes
##585
hierarchy
whenever
0x13
##OK
problematic
intermittent
##Reconc
##549
##notation
##539
##poses
##osh
ownership
evaluate
showed
0x04
wireless
WH
##utable
somewhat
##PN
E4
macro
##len
##593
##Callback
reader
191
##itter
told
##Framework
performed
##istic
gclosure
KDE4
##probe
##761
FO
relation
##tensions
forums
underlying
unus
##url
##361
wide
trusted
ops
worse
Regard
197
##uta
investigation
zlib
##743
##EventLoop
##live
propagate
Dispatch
ApplicationFilterChain
SOUR
displaying
##783
potentially
tarball
Instance
##igra
vide
##OF
##MT
Thus
chrg
Plug
si
Book
##129
INST
allowing
recursive
##Eval
STATUS
throws
WR
##Function
##146
ach
##Sync
macos
##547
231
##Av
sizes
##Mem
##967
Fail
binutils
delta
##Protocol
Paul
jpeg
posit
ess
Rich
sanity
##Display
launchpad
182
VAL
trash
Dev
e8
endday
startday
Via
XXX
##anvas
##ivile
##995
##anesh
sessions
cmake
cds
improved
222
##533
##DEFAULT
Tod
Tomcat
##riter
executing
##ibl
##241
Sty
tegr
242
unavailable
External
##543
accident
##791
hear
Region
##Rect
architecture
##Field
Leg
##agle
##845
##pathy
containers
restrict
237
##CCESS
va
ids
pom
##749
privile
Due
##anges
avail
bootstrap
##600
##8a
cutime
cstime
her
##485
RELEASE
##trans
keyst
removes
leads
comparis
##149
rtime
##riority
enabling
Meta
pipeline
thrown
##obe
332
overridden
Based
##Support
fallback
0xa0
##125
Its
TM
freez
HOWT
AbstractTreeViewer
##source
##ole
0001
UD
Implement
##OB
tfm
RHEV
Follow
heat
buck
APIs
SUCCESS
Ljava
##763
##pool
##249
##187
partitions
##567
##handler
allocation
renamed
##ulier
##131
##745
##iphany
##862
##4j
observable
ugly
##Create
epel
##ader
Either
spawn
race
##Profile
Apple
##apan
connector
##Msg
##166
##531
##141
221
##7f0
procedure
TRUE
MT
php5
kcm
##581
##IW
##ridge
227
tip
##Doc
##lb
##yg
mkdir
RHEL6
contexts
Setup
exported
##NAME
##765
Waiting
BOX
hon
##eft
##8d
CET
##uly
Normal
##127
##LM
libxslt
tg
utility
internet
##b70
contribute
tmpl
composite
cart
##175
PROC
##735
Full
##KERNEL
identifier
195
ng
##LD
uncheck
personal
navigator
koji
pae
Format
0d
prototype
restarting
##185
Video
pie
##iliar
EP
8080
##ERE
##arge
##HE
UPDATEDEFAULT
##Hat
DEFAULTKERNEL
unlikely
##pointer
music
Operation
Spam
wlan0
SB
detection
##KB
##entry
esc
##verage
##247
##diff
CUR
DHCP
##135
##775
combination
##847
invent
terminated
##osition
applying
##Posted
##866
minute
330
##juta
placed
##ja
Theme
225
openjdk
marker
##145
IPv6
mailinglist
mim
GP
partial
splash
##747
##643
##Notifier
novell
189
##py
smp
Again
##mask
##583
inactive
4b
FAL
4d
generator
##enter
##537
observed
##521
##agick
Capabilities
foc
##777
Nightly
MAP
##591
CB
GPG
##367
vf
421
Servlet
##PostedEvents
##cj
conflicts
timing
integer
##tra
incomplete
ASS
equivalent
Something
separated
RB
##He
goal
Peter
##enger
##apd
allocate
specification
##ny
chunk
localdomain
unrelated
replicate
stale
usability
kept
##MI
af
procedures
246
BusyIndicator
combo
INF
drops
##793
emails
##Be
##oting
##143
MAX
Synchronizer
inbox
##verting
recover
kt
keeps
Vari
amp
##137
tv
hello
##Us
##VG
ovs
##mbrello
STATE
corruption
downloading
hd
rails
CTR
##553
attention
##ek
Properties
205
alter
animation
##1615
Changed
firstboot
spacewalk
##leaning
Adv
business
gettime
appeared
##587
0x22
##ained
Exp
##883
Mouse
sendPostedEvents
gid
##eel
##Del
##243
##779
leaked
020
##OAD
16384
Step
RedHat
Ide
##olve
signing
CompilationUnit
sourceforge
unw
QWidgetPrivate
bal
##ptom
implements
Merge
photos
##741
tegra
##esting
##333
##rhgs
unnecessary
##acl
mot
##941
##889
Mandr
el7ost
##773
20100
##gu
338
##626
##ula
KDir
1999
##Activator
##869
##ustr
389
##CON
##Font
ecf
##Policy
1st
##961
##Address
Map
Hash
detach
talosError
##wi
STACK
##ec0
Reason
15000
forever
##anizer
18446
seemed
Caused
Buffer
administr
love
accur
modprobe
##orb
425
committers
installs
osd
##etr
bounds
bright
##History
217
upper
##econ
Syn
##565
FALSE
pixels
reinstall
satisf
##863
##agnost
##197
surpr
##ODU
##rant
0x7f0
implicit
##ce0
##VENT
OBJECT
loadClass
brasero
ThreadPool
Interface
ffffffff810
PORTAGE
el7rhgs
REG
breaking
##v1
naming
ak
##881
vertical
0x03
IMAGE
engineering
composit
zh
reassign
##Is
saf
dep
imagine
1280
gtk2
Inject
##anesha
##aring
Kr
443
filtering
AVC
##spaces
usual
##ulse
##mpeg
Util
retr
298
Permiss
Comm
2nd
##157
##147
Sto
doFilter
##785
##ad0
guarant
capabilities
##997
##pection
1a
MP
declared
gvfs
cbk
##aight
mal
##795
Raw
##ander
unc
Pe
##button
REJECT
##iggers
Debugging
gio
##Spec
##iKam
tycho
locking
Art
Termin
exceeded
DIS
FYI
appreciate
##bars
0x83
Correct
##state
2048
tier
stock
demon
Ethernet
libGL
formatting
whites
266
particip
processed
##progs
##wan
##161
Equinox
conv
backends
BOXED
##term
hi
##uper
##VALID
kl
bs
##found
javadoc
spring
##erry
modes
##70955
differently
##urt
Second
tend
##INE
prev
webapp
##222
184467440
dhclient
##itlement
##Off
c1
orion
##751
horizont
onto
pressed
##5a0
334
282
ipv4
##gre
##885
##545
##klayout
hol
prepar
Render
CF
##itable
##597
##443
Flash
##serv
##▓▓
##561
##una
complicated
f9
##IGN
539
e2fs
0x404
published
autofs
rc1
kp
Folder
##228
Eval
272
Music
Resources
##867
##ILL
1c
##uting
##orld
libgomp
icmp
##Browser
declar
##557
bugreport
designed
18446744073
Krita
##OLEAN
gave
UID
BOOLEAN
bz2
straight
Dave
##fish
reads
snip
##HCI
realize
##ano
technical
##AF
##ppy
Fixes
breakpoints
##be0
geo
Managed
##666
landed
##lecom
Sam
##aW
nepomuk
POLL
dynflow
##Region
1844674407370955
##641
##SM
##551
243
locations
Jeff
##Man
solid
rewrite
licens
Location
Installation
Login
syms
thresh
360
Global
domains
##reakpoint
flat
##757
##JB
OSGi
##written
binaries
hooks
##383
0x18
##iser
approved
killed
connecting
##ifiers
##781
margin
INVALID
libgfortran
##de0
Issue
acceptable
incoming
Sys
##utely
Infr
##clus
##Agent
0010
alone
ATI
##ony
runEventLoop
kdeinit
franc
Amarok
##993
##ecessarily
##TestRunner
##stood
KERNEL
##rv
a2
CTRL
##Argument
MacOSX
RCP
mid
229
bb
##idecode
During
CentOS
##Match
jars
osc
drac
programm
colour
roll
##Import
expecting
somebody
##351
##797
triple
overview
mn
Response
concerns
##ontext
##Tracker
libgklayout
authz
##ynamic
GR
favor
##graph
##865
Caulier
vers
printed
clipboard
15000M
##171
##pkg
compared
Was
schemas
Advanced
##lin
Socket
incorrectly
2a
##cc0
##195
##olders
configurations
umbrello
Cloud
logger
##887
netscape
quote
intltool
##Pack
subsequent
xd
absolute
w3
compose
algorithm
##Types
unspecified
##imedia
demonstr
Channel
bg
##ixmap
mapped
##AAA
##FD
bigger
##bing
qgui
##IND
PER
1073
##393
digiKam
Bar
##urses
lets
0xb0
La
Submitted
##ometry
##MouseEvent
##b90
##535
xlator
##affic
##Gr
middleware
223
Top
1500
contr
##foundation
##339
003
portal
DATA
bey
lm
##ama
protocols
##ky
SIGSE
Two
david
401
##389
descriptor
##nck
she
##ields
debugsource
0xbf8
selector
##595
QList
##ff0
Compress
themselves
gear
##apanese
##7483
##991
P2
##ELL
##Properties
comparison
Requires
recipient
Har
Virtualization
##agraph
##771
##HR
##541
0xe
mc
vml
##668
##free
##371
xvde1
##vt
##Sec
owned
828
covered
triggers
18446744073709551615
##628
functional
pointed
Illegal
280
tweak
instr
booting
##Git
mit
269
##lepathy
subscribe
beyond
0x0804
##226
calligra
##ICAgICAg
morning
##ocale
persistent
evince
signals
##Suite
Sending
categories
levels
okular
##idence
SIGSEGV
fro
libc6
0500
##Statement
Oops
Changes
AF
kdev
4c
247
JSON
Graphics
autogenerated
0x000000080
thoughts
texture
##167
##ada
libthreadweaver
##Selected
behave
##ressed
noted
Sounds
xin
gov
corrupted
Pol
##CK
##iny
##iday
dracut
##adb
##ivers
FIR
variant
##0000000000000000
9999
##owers
lambda
logo
Label
sink
chosen
k8
##WebKit
##esides
coverage
codes
dem
xsd
##d000
importing
Slave
Downloading
forms
##Face
##Iter
reopening
kden
organization
messaging
##EMU
Mylyn
introduce
ED
##arios
luck
##Focus
Automation
##Enabled
##Description
CURRE
1200
unconf
AFAIK
Revision
5000
sensitive
Certificate
candidate
##989
Scroll
##Traces
Addition
##ocoa
panic
##etelecom
m2e
QTimer
francetelecom
Notice
Section
secondary
B2
XUL
pure
##dc0
##edic
##DOM
##fx
flaw
na
legal
Restart
##vb
kdem
yml
Suggest
i2c
MAN
##atable
House
applets
0x15
PROCESS
toolbox
typo
tail
REST
scanner
##1ed
capability
##structor
chardev
DLL
rely
Encoding
checksum
shape
nom
##Proposal
pars
313
##efan
##Collection
##f000
##Response
##ntil
##iest
##af0
yahoo
Flags
a1
office
dt
##Monkey
##romium
om
##Worker
cards
RHV
traffic
s390x
##YX
0xb7b
moves
IDs
recv
##weed
mmap
##index
mv
rhui2
independent
##C0
##ledText
buddy
kwargs
nag
bog
Andrew
Those
AD
increasing
sections
Language
##lette
unresolved
conven
GettingTraces
unset
##ONT
##Char
Parent
grant
0x30
Many
##Cash
0xb6f
symptom
readable
Car
##only
dogt
Aurora
##erber
afraid
PDT
gpm
##ists
ami
##yy
##629
freetype
##621
hs
309
Great
WA
##ARD
Signature
nid
##ycoc
entering
##erces
cyrus
willing
passwords
sysfs
##ermal
benefit
suggests
ganesha
rawhide
QEMU
##platform
draft
kde2
wall
vanilla
##ca0
RHN
##SSL
knowledge
sf
tracked
copies
stacktrace
##fa0
oracle
eye
##Rule
##orted
linuxfoundation
QMutex
##Ph
##groups
committer
acquire
Compare
mozapps
explorer
fn
##ulk
gh
##245
##623
uhci
##225
whitespace
pts
251
hitting
MODUL
e2fsprogs
SOURCE
differences
337
solutions
775
familiar
##FM
roles
##337
Daemon
Wall
Brasero
jdbc
pcie
##rhs
Eric
uml
games
planning
##Do
##ected
targets
CFLAGS
##ko
rgb
ET
ee
1b
jvm
##a000
robocop
forced
stated
##kr
German
subst
kapplication
SMTP
filled
##Sl
percent
##331
##aily
20070
market
Grid
SLES
RC2
march
YaST2
Exit
##count
BIRT
ER
libselinux
oxygen
##Column
SELinux
fno
frag
snapshots
##han
##UNT
BundleContextImpl
##TextEditor
cpus
QE
DMA
produces
svc
Jon
Private
ghostscript
Netscape
coordin
##URES
ment
##uming
##BB
##KN
##estfs
stays
##arwin
OpenGL
Export
##rew
Home
browsing
subsystem
opfed
273
moderate
Feature
##atible
establ
##orn
CRE
RFE
##Initial
##aken
Regarding
##IDIA
sparc
elsewhere
##umbleweed
##onday
##Environment
Shut
bluetooth
ehci
tap
timezone
QU
##iga
##LT
##rca
321
Priority
Function
265
msgid
xmlns
deb
##aj
kontact
Wr
opc
symbolic
plans
QGui
##ETE
frameworks
Documents
##ede
##IDE
284
##Active
initi
NSPR
leading
##printf
Multi
ACT
maps
ignoring
shortly
COL
NOTE
sorted
egg
constants
scenarios
VDS
HAVE
lsp
NLS
297
absolutely
##READ
println
258
Developer
##cale
printf
##ermail
PGP
Possible
disconnected
radio
libvirtd
##sembly
dvd
generating
340
##rief
statements
##Rece
0x000000000040
Gerv
invokeFramework
Permission
Orca
Selinux
NVIDIA
##ouble
Nautilus
HOST
HOWTOs
unpack
datas
##estroy
GnuCash
CLI
Phil
btw
rendered
ended
LOC
593
jhbuild
SATA
commented
Products
dtd
##emp
brightness
encrypted
gate
etcd
dere
##acem
apt
listing
##Vm
##hd
SW
xsl
simpler
Fennec
Hope
proof
raised
eth1
unicode
deact
##aper
##ef0
Uns
0a1
##arrow
##a00
OPE
inserted
##VDSCommand
##ipeline
ifcfg
reminder
##da0
##viously
Put
##eventdispatcher
csc
libw
##enview
cost
StyledText
duration
Projects
tablet
2147483
Additionally
Me
gitlab
##cvs
workstation
TimeoutException
##400
XFree
everywhere
##imin
Stephan
libguestfs
411
##db0
278
##Resolver
##987
classic
entitlement
241
##ride
0xb3
egit
##asticsearch
hat
nick
visibility
invoked
caching
##Record
290
263
subclass
uploaded
tells
Parameter
##tw
browsers
Matth
##Per
##sive
239
netmonitor
##erberos
improvements
Ign
368
TRACE
ARCH
converted
runAsync
htm
M6
gfs2
Signal
##har
##lish
##handled
dmidecode
vector
explo
##des
photo
confirmation
##Shift
libXfont
##Decor
8859
Konsole
Direct
guessing
epp
##cleaning
Complete
wont
##frame
CXX
##rep
OPTION
Match
##vd
prevents
pipermail
##2date
recreate
fastest
Hal
##Track
reached
cxx
qguieventdispatcher
serv
responsible
Mass
##Streamer
##ols
PPC
##ASS
Legacy
utilities
##▒▒▒▒
measure
ctags
produced
continues
##ises
##ational
##leton
##xf86
##c78
296
##going
WITH
Hot
ppp
##c46
x00
chip
foot
gather
strip
downstream
b0
##ati
##ProgressMonitor
ln
sha2
0xd
##397
brick1
Each
##builder
##za
Permissive
modification
Making
separately
sdd
##861
##Visible
rcs
##ATED
isol
##atory
corrected
Level
##x10
jabber
##da2
Disabled
xx
rhv
up2date
Way
##ARE
workspaces
bison
0x60
640
##arma
##gb
replacing
##ynchronous
LVM
beaker
DI
Basically
Cancel
nodejs
##lv
268
##enix
Hel
SNAP
gnumeric
AV
GStreamer
README
runWithDefault
vmware
Couldn
##Services
VGA
mesa
pat
libpython
paragraph
Master
##625
SELIN
equals
424
4f
RW
##957
swig
ino
cinder
libXxf86
pods
##rik
##983
##abric
##co
Future
meantime
branding
##Row
##Exp
257
FWIW
##iation
444
294
336
Item
##WebEngine
##RESS
##ingu
leaks
0x92
##ARGET
concerned
Origin
##ONLY
##Remote
FE
persists
RFC
##FORM
##hr
focused
##PEG
sequ
negative
306
##df0
interaction
##627
Mobile
nr
##Fin
##dd0
##Global
DQ
inherit
tripleo
Du
django
reviews
Processor
##fa6
##385
edited
friendly
0x409
##Ow
0x00002aaa
sends
tclass
##Port
Checked
##Fe
##Save
Typed
LV
##Em
Arg
261
STRING
LAT
mong
libxul
##ounced
##icht
##ailing
##ANT
zypp
deletion
##uzz
TOD
Modules
jira
##ini
Sea
0x24
0xaf
gnome2
##ulator
##ali
sheet
10000
surface
Viewer
Design
customers
Classpath
ROM
##223
##Hash
##shake
##335
##yzer
##initial
Hudson
##ab8
configuring
Stream
##IENT
Count
Stefan
libgcj
writes
modem
Gal
##Items
thinks
identified
timeline
##ee0
##imal
experiment
dell
##Release
ffffffff81
##ho
##981
transparent
el7sat
Perl
accessibility
triage
i4
##block
##Width
##Popup
##anger
JAR
##bs
kpart
rcp
magn
wm
Tried
322
recomp
##Cal
##Click
trac
orient
359
quoted
351
WorkbenchWindow
errno
Reply
##card
advant
Frame
vo
##pler
##asy
traces
##Converter
sane
ovn
supporting
##985
cscope
getenforce
##lemetry
InjectorImpl
##387
dupe
##amily
efforts
glance
layers
brush
unconfined
##atically
365
fstab
imports
ql
##utors
2b
vmdb
ThreadPoolExecutor
##c20
environments
PV
samples
##fce
##421
0x402
##Backend
8192
##den
##di
##Contents
##Magick
formats
Hop
Cho
March
Execution
Christian
259
limits
##mirror
formatter
Japanese
##mann
grad
WebS
realized
Javadoc
##Variant
mine
##357
runAsyncMessages
bc
Pap
267
MULT
qm
passes
discard
learn
20040
deep
Never
##rag
recognize
##uations
##wM
##iserver
destroyed
FreeBSD
considering
ball
##Deferred
##abstract
kst
navigate
OCL
##Directory
##Abort
##FB
alignment
configurable
##izable
##inese
##dapt
501
##Pane
CI
##Y2
thermal
##ani
##ubles
##cpu
wik
##SHOT
Groups
350
##GN
enforcing
alarm
gar
##achable
piece
articles
Hence
##SB
outline
327
purposes
liter
parted
490
horizontal
Indeed
gtks
gfx
pops
inconsistent
Documentation
registration
##CII
Reopening
tzdata
heav
##imately
PME
locate
##izards
##profile
eap
sorting
fo
##atibility
cds01
Decor
0x19
clang
redund
2369
scontext
315
wer
##Names
##views
generates
b1
##229
##ainted
##service
##utorial
##agers
##391
ONLY
renderer
sharing
Entity
assigning
##Pass
overrides
Bet
tcontext
ZN
GLSA
##cii
Foo
replacement
padding
##221
diffstat
libgnomevfs
pyg
Pod
##uts
presence
SeaMonkey
segv
statistics
##951
##Scroll
bugd
##while
##inst
modeling
crypto
accessing
unsupported
317
buff
c2
##ISH
ALSA
tech
Today
##Copy
##pit
Everything
RAID
CRASH
xerces
##00c
##SourceDispatch
0x96
conversation
propos
watching
##ServiceImpl
357
##WIN
patchutils
sid
presentation
opcode
Xtext
FTP
OpenShift
grey
##Runtime
249
referring
##Mult
##atives
319
worry
temporarily
Style
##669
##KT
##Account
ctl
##zz
EVENT
##access
srv
##F0
##unity
##Fragment
SNAPSHOT
##ulated
whereas
eax
indexing
Ecore
##izations
##XP
expressions
##WebEngineCore
byacc
ata
J2
bm
##jb3
ack
replication
LESS
disag
cores
ffff81
##wxrwx
Partition
##ixel
##IRC
epiphany
##Cre
dates
websvn
##ed0
Notification
##iblings
##448
bold
##esupport
whiteboard
distfiles
Monday
freezes
frontend
viol
0x56
##5555
camera
eog
xsession
localization
##fire
Matt
lifecycle
##fill
##ika
##ulation
##rame
fc15
CU
sda1
##00101
CERT
Op
e0
consistently
##inuz
viewport
##395
##B2B
mi
##Top
289
##a1b
pulseaudio
sum
ffffffff80
frequently
fullscreen
SERR
0ubuntu
planned
mounts
threshold
550
ogg
intros
##ena
till
shall
capacity
##urial
runApplication
ICH
##SP
notebook
##RAM
##Pad
ons
Under
libQt5WebEngineCore
##rs
##linux
331
f0
Kar
QCoreApplicationPrivate
Papyrus
##Null
##Pers
Altern
0x7f4
observe
409
##coming
requesting
letter
b6
WEB
LAB
Entering
MEMORY
vmlinuz
mgmt
##vents
##mx
ncurses
PE
##kiga
MM
kdm
##Available
##38d
VT
macros
WHERE
##e00
backported
##chi
Hand
enhancements
nos
pse
Consider
RPC
##ASE
rhythmbox
M5
Completion
##BOOT
GCon
Off
f8
Apply
0x94
linking
##Bean
##Bl
##inspector
##Template
practice
##Aut
Express
cif
gchar
ASCII
meeting
##ita
announce
strc
Lif
OpenOffice
##uri
343
unread
jgit
##ellow
Transport
##pdown
##XXXX
##DI
QQml
Unix
queryformat
recovery
sha256
representative
rare
##ymoney
##Transaction
qabstract
##engine
Nick
slice
libkio
scaling
352
reftest
##atterns
0x9b
aim
##orse
DHAVE
Phonon
strategy
libgn
kickstart
##DN
Entry
JFace
networks
TBPL
##hs
Saf
delegate
activesupport
##AQ
TODO
situations
xcb
undercloud
5b
##elist
292
restri
##Keyboard
0x26
SP4
FastB2B
broke
a3
mand
Wl
##OUT
##regator
##vv
garb
##look
assumption
hypervisor
r5
facet
rights
dst
kf5
##ua
##pite
305
controllers
##oses
Extended
pause
Rename
listeners
##ortcut
Parser
##Ke
ming
TypedListener
##ffffffff
criter
recognized
##afa
##RU
Released
##ship
##Memory
Devel
disappears
##umar
ffmpeg
v0
figured
gb
QAction
20100101
356
logout
Markus
clicks
APIC
BY
libpython2
changeset
lc
y2
reverse
recall
highlighted
##icious
lazy
##notify
encoded
457
TAbort
##icol
fastestmirror
atk
announced
swift
Registry
asp
v2v
QV
cleared
##eb0
english
prefetch
##381
ELF
gzip
suff
##EditPart
Xml
former
FOUND
netdev
LINK
Neon
##lar
MI
##lined
0700
unload
idx
bugdetails
seek
##Deploy
JAV
JavaModel
Oxygen
koffice
vte
linear
Migration
M7
mpeg
CONT
##Only
275
##men
##Completion
XFree86
f1
Mal
HD
Ins
##Pages
##oned
##control
##34b
Helper
tracks
Tumbleweed
##Generator
deadlock
drawing
pgo
gtkmain
ROOT
##iso
4e
##ispan
assumed
283
necessarily
##omph
elimin
##Args
gray
b3
pushing
skipped
cookies
GDK
##Bounds
2C
##atio
##ned
June
Reporter
retval
QPainter
RunnableLock
##ffb
##B0
ip6
particularly
WINDOWS
daily
0xb68
303
##Admin
##news
interactive
0x7fb
terminate
##MMARY
0c
OU
maintainers
cgroup
##Classpath
Accessibility
encour
linux32
Transl
definitions
exclu
treat
##organizer
FIRST
##Gu
phx1
improving
##ESSION
elasticsearch
sirius
RHEL4
20000
##Hub
xterm
##ude
900
unusable
##resentation
mixer
integrated
experiencing
wizards
refs
overall
accessed
##Execution
ppl
Specific
kmymoney
1234
0x406
kinit
##Volume
Integer
experienced
##abricator
403
0x06
0x004
WW
##2000
##FT
##Options
ifdef
Hopefully
keystone
Firebird
afterwards
DN
##No
vlan
Char
futex
LE
##f28
370
##Ret
posting
RyanVM
Po
modal
supplied
##incip
Fetching
NetBSD
##2k
ath
wil
circum
c10
broad
##Synchron
##80211
##263
basis
##227
defects
gef
filtered
SUMMARY
0x7f8
HW
Latest
RDONLY
##oomatic
366
sectors
##eek
RHEA
lose
jp
##keys
999
boxed
##mem
average
##ket
Integr
libwnck
MD5
brief
room
##Graphics
HttpServlet
##pb
hung
1800
##Http
condor
implementations
##NotFound
CLOS
DEL
restored
##olist
Dynamic
rx
##Install
caller
DEVICE
intr
wrapped
##uZ
##eping
qd
personally
0x9f
##Offset
POS
bd
mill
Bel
nagios
conntrack
DIST
c3
Template
NL
Problems
0x100
##DQ
##WORK
Point
Though
Performance
appreciated
renaming
Left
##Tim
Unit
NON
##utls
##ipedia
lrwxr
whose
runlevel
instruction
COMMIT
##Token
Similar
Dock
semantics
Dell
awesome
conductor
##clared
para
overwrite
AES
##umably
denial
yeah
postfix
Initializing
Archive
QDBus
mailbox
##79b
units
nou
Who
##abb
localized
##MHz
##wt
dropdown
vfs2
rtc
##ica
##igo
cgit
##ctionary
##FC
##D0
##DG
##Sn
consistency
libkdeinit
History
system32
tooling
285
Appro
vulnerable
Christop
##appers
MHz
khtml
##a32
landing
##ruct
##uman
Stop
349
advice
extrem
transactions
##Assist
##uncated
YES
waitFor
spend
markers
##lyph
vt
##query
defines
612
##DeferredEvents
480
monitors
Infrastructure
dispatcher
Writ
##ORE
Drag
accurate
factor
##ugged
buggy
##Reconciler
libxcb
ENT
ParErr
##freq
vms
foomatic
Building
##rought
fan
00007f
unchecked
##ensions
0xb7e
Brian
Clean
##AE
##1111
Au
xinit
##crypto
exc
##Console
disagree
rwxp
##jc
VL
0x50
0x42
Xv
rese
##standing
analy
Apparently
Ow
Adobe
speeds
April
0x0806
##select
drives
Interesting
hdc
##Xml
among
##CONF
##Dev
lspci
Paint
segment
p1
internally
inventory
##abc
3600
344
encode
Hy
rhts
##IPP
Enabled
oops
CURRENT
TW
##Database
##Header
declare
##ff4
Sept
highlighting
runDeferredEvents
##aron
lrwxrwxrwx
distin
Layout
##Di
##rix
clue
##VEL
perman
##raid
chars
##Send
parsed
##KNOWN
Brow
bother
vhost
modifying
nist
##cli
narrow
appliance
reproducer
foreach
sb
viewcvs
0x77
318
LABEL
reverted
manifests
##mouth
503
stud
##eper
555
udp
xm
0x17
asks
fennec
hex
##Pipeline
CLOSED
420
##34f
metacity
cycl
m4
0x002
##oft
##asper
NIC
belongs
##dep
Confirmed
0x7f2
##ighter
364
libreport
pyspi
##plicate
Header
Safari
##watch
k8s
Length
##ContentProvider
Den
suitable
UNKNOWN
##689
sector
findClass
Like
Perspective
Greg
band
gmf
ffff880
##idi
ni
screensaver
##uses
Reflection
##ockpit
orbit
Machine
##lets
Automatic
sockets
cmdline
dragging
##width
##FE
Binary
needinfo
5f
##Watch
##default
cleaned
CDO
ten
##erepo
BootLoader
globus
##ifest
##ronic
WAIT
##veau
skipping
acceler
REM
ill
nit
gss
##vention
##d96
FAT
##pcom
##dden
July
Require
GValue
Protocol
helpers
NETWORK
422
criteria
Architecture
Parse
##orbis
##eduled
##maps
designer
e1000
Switching
466
delt
routing
datat
0xb66
soup
b7
##uel
##rier
scrollbar
POP
drools
quotes
Xen
##Information
##ellur
##Hand
##aved
##record
486
beg
scanning
##ipi
leaves
M4
ror
floppy
##etup
goto
highly
wheel
b4
EOL
##FFFF
submitting
##lc
gfid
##oui
537
Andreas
RAW
##iders
358
##ni
##ABL
Navigator
##PUT
libQt5Qml
turning
##egra
##TO
macosx
PlatformActivator
redundant
board
rc2
escape
Bridge
specifying
##artz
harness
700
reve
exposed
##FILE
MF
##initrd
384
lk
##ista
##nl
##IVATE
unreachable
dogtail
dav
##After
coding
514
aa
d0
ffffffff811
354
IIRC
Refresh
##illi
separator
##register
##ya
0xb2
test1
##a4f
prohib
##T22
hints
orca
Very
ejb3
nature
##de4
story
Rev
gro
##arse
outer
Interceptor
##heet
indicator
271
Didn
KHTML
ao
accidentally
Secure
##Iterator
##b000
submission
closes
##FileSystem
WRITE
Vol
demand
JAVA
464
sysinit
##c39
##words
##daemon
xim
Repo
##SER
extremely
##Br
responsibility
##ecd
cifs
libbonob
##900
iterator
weaver
house
PROG
##athan
LG
##system
##spell
##posite
privacy
##Length
cpufreq
insertions
##usb
##rase
libex
dam
repolist
spent
##wers
chromium
##ti
984
##A1
styleinspector
##itz
pictures
##framework
Nep
ocl
##Tools
##ancy
typically
react
Finally
webkit
trailing
Supp
PG
##usted
##tests
cdo
Sample
##BL
##emo
ist
GEN
Panel
intern
##mor
##lymouth
Tegra
##IPT
disappeared
hoping
cherry
score
nscd
802
behaves
setText
326
##imm
TestCase
presented
##YY
dynam
bare
Marionette
323
graphic
Win32
grub2
##Watcher
##ga
##ERNAL
##e04
Kontact
infinispan
##Requ
behalf
Preview
LN
bogus
autocomp
META
Lars
ascii
paper
patterns
son
openvs
##40b
##romise
ton
13G
##emux
##asion
math
##423
xmi
##Cell
lin
##EventDispatcherGlib
##v7
##ATURE
ideal
hb
FONT
bn
Family
0xad
##icies
synchronize
Bit
##Library
star
##Bug
streams
##amm
communication
##buffer
##Sign
quant
##a60
##G9
csv
health
##stances
Scan
blacklist
0x70
##tries
fence
##x4
AE
iface
Related
resc
##Panel
##Bus
scl3
fingerprint
Chinese
100644
lun
Unless
##5000
Skipping
412
CMakeFiles
##d00
##xxxxxxxxxxxxxxxx
uninitial
Pool
backlight
Think
unmount
##Preferences
##eee
plasmoid
ber
0xbfe
GitHub
vars
##IH
utf
##Scanner
prog
gdbm
gain
i915
WebSVN
dual
Rev3
##Timer
profiler
##uite
1600
Pull
trav
indicating
preserve
runnable
duplicated
specs
Nobody
D0
cancellable
bf
CQ
##AMP
##moz
0x40b
uniq
374
bios
##A0
aggregator
CHECK
pag
executor
urls
376
##abbit
##Mapping
##Det
als
##eech
explained
openvswitch
misunder
##732
areas
335
CAN
supply
##changed
00m
jmp
mkinitrd
encryption
##rick
rip
EB
company
ejb
##keti
0xc0
hotplug
led
##c58
##ashell
Mess
modifications
##265
ou
##icip
libbonoboui
##8c0
##rotate
advantage
mut
##PO
##Write
EV
uncom
Pres
Github
Binding
POLLIN
##Art
##paces
telling
Activation
ba
Plan
##ocator
Okular
feels
kdevplatform
##tb
0x804
##ijn
coreutils
asm
derived
regressions
technology
prere
decoder
##ih
rebase
towards
rdf
Verification
Anal
##c1b
##IRM
opengl
sing
##Section
noise
synced
##opsis
DATE
502
Email
snippets
768
populate
Hm
##ots
FAQ
coun
Redu
Field
anjuta
##IFT
Mandrake
Replace
prox
##irq
inspect
##Elements
TARGET
sharp
SYS
##Scheduler
##licant
guidelines
##abor
cocoa
##TE
MainThread
pkcs
Used
##CRIPT
##erun
##ald
shr
Devices
##CF
##agnostic
james
instrument
390
tokens
interact
##444
incompatible
0x93
##Generic
Willi
##Mark
##reeze
RHEL7
##pdf
tiff
Stopping
qui
Unicode
##ProcessEvent
Vm
Keyboard
gtkwidget
Co
##ilo
Major
gpointer
INSTALL
Deployment
Aw
runUI
##ookup
##misc
372
mu
012
pixmap
slower
Terminal
exports
synth
0x91
pred
mandr
##3000
cipher
engines
##nel
investigating
responding
spread
slaves
380
XX
sudden
Quit
frozen
indication
routine
filing
0x0805
Ideally
##ened
##Aw
reuse
##Cap
##estion
nearly
Distrib
##WF
##IGHT
Shouldn
nouveau
Single
##10s
research
LIST
Lorg
Following
##mq
Ga
north
rebalance
##AAAAAAAAAAAAAAAAAAAAAAAAAAAAAAAA
0x1b
el6ev
##ober
impress
597
grace
Snapshot
M2
##irk
##Var
##arbon
##OO
DM
Sent
WebCore
##aste
Metadata
0x407
295
ARB
maintaining
##uary
fc14
libdbus
buffers
414
ECF
greater
##d80
##d47
cvename
##fin
##arr
Stat
##300
20090
CEST
xz
pcs
##T16
lifetime
reassigning
tit
##Layer
Usage
##uer
inotify
##account
wget
autot
SESSION
clnt
flick
OCS
limitation
##li
attempted
px
Robocop
plasmashell
##gression
August
##429
issuing
##Delta
345
RX
extent
0x0012
##ension
graphical
Title
x11ProcessEvent
snow
extras
thumbnails
TX
342
LOCAL
##Cycle
finds
closer
426
##parser
##oman
##hz
coded
Panda
reopened
jax
hardc
##cert
understood
dia
##D8
##well
glad
SM
##ety
BIN
##Contact
QGuiEventDispatcherGlib
##7fe
##orpor
##Painter
cockpit
##Validator
Preference
005
ordering
##36e
Startup
291
harder
293
effectively
sizeof
oslo
conditional
##c80
##upid
increment
sentence
##WindowProc
##LocalClass
##cd0
498
Kn
recommenders
chr
r8
mb
0x7f6
springframework
syncing
CLASS
##etd
1400
PY
##289
mailto
covers
##ae4
##GES
el6rhs
docbook
jpa
524
traceback
lx
##aptor
i486
##Site
##hb
pulled
infl
##abe
xineplug
exclus
wb
##arent
Upload
bp
hid
##rete
##nr
oct
phabricator
plymouth
distingu
MonoDevelop
##Transport
indicated
##Workspace
Watch
##emes
s3
Networking
##WR
curious
##Mail
sel
##ograph
##ae0
logrotate
ASA
cartridge
FL
##x0
InternalPlatform
x2
achieve
InterceptorContext
##photo
Mer
fc20
eph
Bugs
Components
##COMP
manip
##module
Customer
constraints
Gimp
0xac
##roke
Execute
ti
walk
Provider
c4
vga
##iva
##urrency
rpmqa
xattr
surprised
##kill
partially
heart
Authentication
Maintain
##N0
65536
436
reconnect
unde
enumer
DU
##dialog
Activity
WorkbenchKeyboard
libas
348
PMC
##GR
INPUT
##oe
SVG
Friday
Disable
aff
##Configur
##amps
386
PyEval
assignment
ah
##exi
umount
anybody
answers
slapd
layouts
##odec
emacs
281
0x05
heketi
Sunbird
viewing
##801
437
##yd
PACK
panels
##ea0
##builds
rejected
##cf0
##Qg
Pango
##DL
guests
CHAN
theory
CAP
##687
##ella
##Xcb
1134
despite
aio
kh
##ANCH
IProgressMonitor
##Max
##rets
PRIVATE
##PH
Luc
PNG
##iag
363
463
Kumar
vag
sosreport
##T11
expired
kdump
##odata
mailnews
consideration
3p2
Obser
##7f8
346
occured
511
hits
performing
##IPS
##18b
hm
libgnom
WorkerPool
SYSC
provisioning
##la
##Extensions
##Ver
##REE
##DU
XS
telepathy
weight
prints
solaris
Affects
Refactoring
importer
EventManager
Bonobo
##DEV
Card
Head
kicker
##PP
##aby
sees
troubles
##Metadata
relatively
##uj
##ffe
##vi
##aa0
##ivery
Player
dnf
##astian
##beat
libxpcom
##d10
deletions
##BE
emb
##pub
##First
apic
Workaround
beta2
##Resources
reliably
##date
Attribute
interrupts
ali
EXTRA
##eder
POSIX
Kit
Word
telemetry
pw
341
distributed
focusing
unwind
introspection
Called
FIN
gq
resizing
obtained
##oops
##x768
Systems
##caught
wayland
beta1
dynamically
promise
##d40
weak
requiring
truncated
2815
libpango
suggesting
OSP
CREATE
Robert
MUST
0002
fm
##ussian
OPTS
Rh
##Func
supplicant
stylesheet
0530
Kev
M3
mini
WizardDialog
##GF
pkgconfig
476
ABI
##ITION
GLX
PREF
cant
##aints
hist
serve
switches
strongly
3a
akon
geometry
brought
388
##427
##imited
##Variable
##urface
bootloader
PATCH
specifies
##Transfer
UX
##CM
Scott
xpcom
##BOX
fc17
##bert
ta
payload
##tl
##667
Yep
##met
TASK
##aleon
January
##arsys
Bal
##ff8
gcon
##lines
expects
reproducing
tile
##greSQL
##9000
anch
##rypt
##283
outputs
CCBUG
profiling
##InfoList
0x85
aligned
bitmap
epoll
expert
connectivity
LIBR
suffix
##kkkk
dhc
compression
00000001
##cribe
libguile
fake
##Parent
indentation
##425
Guest
##odb
msgport
Privile
Errors
##ramfs
GMF
initscript
composer
hu
JSP
##While
##ilities
OpenStrategy
poor
RHQ
##EventSourceDispatch
tagged
Opening
##Writer
369
##Hierarchy
##269
MSI
Condition
##683
##berg
garbage
observ
Smart
##tree
trap
Sound
367
##ac8
proto
3p1
HTTPS
clo
##5b90
James
##fg
##stants
PostgreSQL
##e80
##yM
##Ext
robust
Synopsis
Alph
##AK
##ycoca
##Decorator
shm
##isions
pb
##Cursor
3000
karma
##TabFolder
##be4
##aproxy
Richard
##Synchronizer
San
Opt
dropping
UNIX
offers
Might
##512
searches
Doesn
mingw
sigaction
VPN
##ed4
Visual
Override
perl5
bundler
M200
aka
Fatal
339
Contin
##ahorse
caret
##ankar
GF
parport
nod
tiny
287
handshake
nan
##Definition
TAG
ksh
##Te
rich
kmix
ASAP
ECD
Subsystem
##661
holding
Ol
##xen
amazonaws
##1838
##usters
Eu
##ad8
488
Pid
experimental
Isn
assignee
qdbus
329
##C2
checkin
agreed
##Constructor
BRANCH
##find
Reset
rewritten
X86
##allow
tooltips
##field
Er
prohibited
##STEM
462
##Annotation
OpenStack
##Parse
419
mtu
amb
glyph
ohci
mxr
##ablerepo
heard
##Ac
##Fire
ffff8800
ratio
ExtUtils
korganizer
##uent
##GU
initramfs
##exus
escap
prefetchable
##izom
interdiff
XPC
Tasks
CK
82801
##pe
Pan
ether
##C1
520
##illians
apache2
Choose
positive
crack
directive
ifup
allizom
362
##0K
rap
repro
libnss
Required
mh
##svn
npm
a4
replica
##theless
##c40
##dog
rhnplugin
DW
akonad
Background
##secure
##assist
answered
##PATH
720
aux
ImageMagick
polarsys
325
##Preference
nicely
kpartx
merging
rating
##dated
GDM
tel
##oku
brings
Queue
Assigning
##dy
az
Validate
##ThreadPool
##Lists
TestSuite
administrator
quiet
492
smooth
convin
repeats
mainloop
ACTION
FLAGS
##01000
##onical
builddir
##7F
trad
Syntax
##unt
COM
##nes
alternatives
synchronization
ub
essentially
EOF
##lap
##device
0x081
##710
participate
builders
decre
0x99
##indings
KiB
substit
Bob
CommitDate
##Close
##war
##OutputStream
VDSM
1e
immediate
SYSCALL
Drop
cdrecord
##graded
November
ich
##f00
##enders
gnutls
Pat
nsIP
sal
dal
spr
rebooted
##d60
##atalog
dmraid
stupid
##traces
reality
Dep
backwards
toString
hostfile
##fb9
authenticate
##ado
played
c7
##CQ
ly
##weight
Provision
Specified
##gh
Dat
PX
##a97
stri
##awk
newsgroup
##wrap
m1
##a80
##1bc
videos
yelp
Michal
Awesome
946
digest
328
await
Meg
KVM
stopping
cfm
consult
packaged
0x44
##PY
Expression
Bro
ACTIVE
libu
refers
##PIC
gstpad
oh
attackers
Case
##Comput
xinetd
treated
rgba
##pu
0xbf9
Double
##opard
Audit
##roken
bypass
compliance
ring
wir
ENO
chose
QTimerInfoList
##incipal
tui
##yB
Valgrind
calculate
##clarative
Steve
filesystems
EJB
##d4e
##Enc
Long
unregister
AGE
haproxy
slider
PKG
##udo
Suite
##IFF
taft
wifi
y2log
MASK
defer
##0100
##ais
reliable
##full
smtp
##wg
##442
Ans
September
Lightning
assumes
Tycho
##oat
pointers
mmx
e10s
pci0000
##Range
increased
8a
Organ
##DV
##Jobs
thumb
circumstances
Aj
##cb0
Tal
##Setup
##doc
##mber
GT
Generating
Fa
##entium
Validation
##BLE
pasted
nsEvent
resolver
chooser
libh
AuthorDate
##result
asynchronous
heads
listening
440
b8
##Boot
Collections
iS
protection
KAction
tsc
palette
chmod
##Combo
occasion
##b40
Super
450
##area
unitt
taskbar
Diagram
456
SHA1
##arshal
##l2
##uction
##EventHandler
##Inject
##1b6
edx
OSX
##lt
acpid
##c90
fc19
Embed
##ab4
Nepomuk
Btw
469
SOA
SIGNAL
##T15
MESSAGES
##Space
formatted
##osp
D1
##ec8
rectangle
beagle
metal
##arp
ocp
##private
##51e
L1
##a20
644
##d20
Compatibility
##Review
##Ident
LT
##If
##browser
Zlib
##Spot
b5
capsule
##anted
ALT
##Reflow
Aspect
cdn
##sch
##Anal
ccvs
nfsd
jsonrpc
libart
##ocations
distros
Simon
libjvm
##mbuild
0x95
0e
tmpfs
##bindings
director
Kmail
luks
##Perm
distinguish
D2
0x010
Kevin
452
CRL
Join
Portage
SA
eclip
popular
##Direct
Child
##aaaaaaaa
##Free
floating
xhtml
UTF8
Administration
20080
##XR
##NP
contributed
##YS
##acemaker
##istence
601
renderers
##ILS
weekend
##665
Cook
October
mapp
##ENTRY
##intosh
mad
OFF
##Option
apolog
##3f4
##Height
satisfy
##c60
xdg
##V6
prob
Self
tor
microsoft
##PER
##amodel
##icker
compressed
expen
392
opposed
newest
##Composite
##ication
fc16
##720
##resContext
##d50
incremental
##d90
Scheduler
##b00
##a04
415
##aterial
##Switch
##Recurs
##663
systemsettings
Writing
TD
fc12
##d30
workers
##unks
##ueued
##gar
DEF
##685
seper
virtualization
##ce8
Invocation
Docker
patching
##e50
invis
gail
tutorial
Extract
Matthias
LIBRARY
##qlite
##n1
readonly
Take
##atra
servic
hug
nls
AJ
qpidd
Failure
##e60
xmlrpc
##5k
##sten
##sequence
French
nameserver
upcoming
Online
pyc
Closed
##ugu
BUILT
reduced
0xb64
VALUE
RU
448
##element
Shutdown
Unhandled
399
intu
##Entity
Prof
##L2
xpi
##5a8
numeric
##281
##rx
THE
interpret
##ORS
##ac4
##Executable
collector
K3bDevice
bugfix
006
signatures
Generated
##airo
##88f
Assuming
mf
##ez
intent
orientation
##eces
0x3b
hwp
gram
##Empty
##267
CONN
unclear
##Native
##DED
dispatchEvent
thats
invoking
##leting
##project
##ports
##93b
collections
cde
pas
864
SUBENTRY
##dl
kdemain
blah
Luna
xmm
##c10
##formed
416
rabbit
Site
##Paint
affecting
##IAL
##global
darwin
f7
##Org
unt
OUT
CLO
determined
Focus
##261
Destroy
##oxy
dk
talked
##SU
styleeditor
Cool
##package
elapsed
libnotify
##endra
549
Mars
##vf
negot
0x98
Aborted
showWhile
1132
CUPS
Completed
dedic
gal
##src
##Shared
##oute
gateway
rough
SPE
375
osx
obs
oo
ord
##hoot
##mediate
##447
Speed
cleaning
JON
##flags
foreg
##79f
ANY
ETA
choosing
Canvas
Convert
VE
playback
libpulse
##Navig
dealing
5a
Caught
Attaching
fragments
bucket
##Feature
##hh
stabil
workplace
cleanly
privileges
scheduling
letters
##One
418
##abs
Async
##iant
DQT
##cceeded
alive
urg
##GHz
ACL
##Byte
##a40
##oenix
##lies
0x411
PRODU
E4Workbench
##e40
MainWindow
trunc
rpmbuild
##enames
##INTER
##ifying
##ried
combined
ChangeLog
Inbox
##FI
##32f
xkb
##ddb
8f
validator
rtld
conform
DOC
reconciler
requis
codebase
hpp
##s0
##Show
oprofile
##T14
##ca8
Yast
##smp
hanging
##e30
tricky
Solution
incorpor
##Bytes
##atime
reproduc
editable
Face
Names
redirected
ironic
sip
##bus
##ca9
mozconfig
##Expect
##ruary
EGit
chroot
Macintosh
##T10
silently
382
counts
fw
##e90
3b
##cember
##LabelProvider
alternate
MODE
##ReleaseEvent
##ff7
Column
##Bg
TESTS
##acom
347
responsive
ENOENT
arts
##C4
wallp
##lighter
##Listen
orph
FB
##de8
Rev4
Kind
##esign
Tracker
doesnt
##iversal
##lm
rhcloud
0x001
compiles
ics
artist
prelink
honest
432
nav
##hosted
##emplates
##Crash
0xbfc
vd
410
libglade
SRPM
scop
emer
461
F2
Spl
Differ
Vij
##agent
gem
0xab
cas
refactor
rpml
News
awt
nsHTML
ebp
knowing
##df2
mainly
todo
kinds
nicht
0xb7a
Suspend
inconsist
##c30
approx
presumably
Adapter
##eus
##REF
Alexander
delivered
wikipedia
##imple
iSCSI
##Objects
Furthermore
##HJ
##ufact
suddenly
##umbnail
JP
iframe
Successfully
foreground
qualifier
474
##ILLA
gtkmm
Lu
aes
361
INIT
##449
8e
##fd0
Images
authn
##Force
FILES
invisible
lz
0x006
booted
bisect
sse2
##c08
randomly
Nit
outdated
##tml
fc18
minimize
hwinfo
##cc8
##lay
##5n
##be8
Album
398
##Lookup
590
repodata
d4
##va
contributions
finalize
00007FF
j2ee
secrets
##dda
HIG
nop
wpa
##7fc
##869e
OSS
##avor
Specifically
##8859
delayed
WID
Forms
LO
##Actor
MODULE
##Parameter
kbuilds
registers
accom
##setup
Privilege
##A6
##thumb
ArrayList
GENER
##Warning
deprec
Subscription
##onfig
reconfig
respective
##sheet
525
Old
##Clear
GiB
0x89
##Disk
##ears
established
whit
msgstr
ses
pym
CPP
##holder
avi
Broken
IMP
##Mj
ClasspathManager
readdir
libgnomec
Tur
automount
optimization
BUT
ecx
##agear
373
unchanged
rfc
##IFY
2f
puts
Exiv2
##UUID
bat
permitted
##mas
altered
SK
##Finished
536
loops
Batch
##tt
20060
clearer
drawn
Ready
##a30
504
0x29
mappings
infinite
skin
##fffff
ebuilds
restricted
##cap
20150
##Ui
decoration
552
AUTH
TABLE
##Ig
##input
People
2d
##itude
##Master
##da1
kubevirt
Succeeded
packager
Extensions
Doing
Pixel
##ontaneous
##WN
##qld
stamp
##38f
train
3d
##1200
popt
GtkWidget
Attempting
8d
##porter
killing
Pattern
ANS
##eness
February
attacker
devs
correction
testsuite
Frank
edgy
Seb
comparing
Contrib
##common
Took
subf
##ibe
##Audio
libq
Unexpected
0x403
##e10
##igi
wakeup
desk
Finish
##unner
mutter
0x410
agents
##fe4
Insert
reviewing
descriptions
findLocalClass
misle
Agreed
semantic
IPv4
boud
intptr
disposed
mimetype
Gui
##ixer
parsers
##BU
ccache
##IGNED
convenient
THREAD
##7f4
REQU
##anish
##eaks
##IDL
Radeon
feeling
##E0
aborted
##lr
indirect
##isation
hiding
##ands
ConfigurationElement
age
integrate
##Cond
cleaner
Logging
##atar
fedorahosted
394
OV
636
guarantee
##Pattern
exiting
##aghav
secs
readline
##d70
##GUI
0x87
0x7f7
##IRMED
northeast
##isofs
##Position
el5xen
##qn
Listener
precise
fc13
polkit
##erd
Messages
Backend
##░░░░
symlinks
##volume
enhanced
WFM
efficient
brew
userid
fontconfig
tuned
0x7f9
HAS
ssl3
##zd
##A8
##e77
preventing
mandatory
##BD
libQt5Quick
##287
##obox
##ubar
garnome
boots
##cf6
##Expecter
##Play
compar
##db8
Yahoo
0x1f
qualified
contributors
##aling
activities
besides
0x64
##emant
##izers
##ogether
402
broadcast
RED
##e70
synchronized
kerberos
gjs
dialogue
2147483647
portion
crc
##RG
craft
resolves
##F2
##boy
explains
##32c
IPA
wtp
UNCONF
Detected
##Selector
sighandler
428
##────────
Argument
Xvfb
Turn
##285
371
##489
DF
##marshal
gap
knew
P3
drv
1920
Shared
nam
##storage
intercept
cel
libtiff
HID
f6
##7fb
##morley
redraw
ose
tlv
##e20
##31d
entities
implies
##681
0x008
edmorley
##eta1
hardcoded
d2
##51c78
held
S3
fmt
wishlist
##Attributes
RTL
##usterfs
a11
initscripts
##onger
##c461f
dedicated
##a638d
##gest
advise
plugged
backed
DRI
##minster
##1191838
f9869e
##5b9051c78
##c461f5b9051c78
##1191838c461f5b9051c78
f9869e1191838c461f5b9051c78
f9869e1191838c461f5b9051c78a638d
posts
##3b8
##Auto
ka
##ad4
ethernet
##oj
Interpre
Processes
430
##BIT
hd0
429
kde4libs
Ian
ekiga
verifying
##ÃÂ
appearing
SIGNATURE
RSE
abc
##c50
##isks
Conc
497
inittab
##Complete
##watcher
##aghavendra
SMB
preced
bench
20200
matters
uncaught
allocator
paused
Box
##grading
kwallet
distribute
840
FI
Dom
initdefault
##dc9
Jenkins
##REG
Obviously
wrapping
Launcher
##cb8
Store
glusterfsd
December
KDirWatch
##Win
armv7
SimpleTest
painting
701
0x48
##Actions
wsd
QGraphics
pcre
marketplace
##uesday
rework
##vey
##Ds
##Authentication
undeclared
helped
bur
##3456
pluginconf
0x7fffa
##S0
##TRACE
sftp
eventmgr
unlink
##xxx
removable
PRODUCT
##egin
##PLAY
508
weren
Ping
gv
footer
491
##1126
##5a4
Happ
##c70
backward
rhel5
##MainWindow
##KeyEvent
ical
lxml
##shall
CPAN
MON
RemoteTestRunner
vouch
##mnt
378
##img
matched
libgnc
##OWER
PROTECT
2fa6
Ignore
534
compiz
subd
KS
##edb
##e8f
Hit
sle
##UGIN
technically
##Refresh
proj
494
##irable
RIP
CMakeLists
##Rl
pnp
##leo
availability
MiB
##gid
##DBC
r7
396
succeeds
##Press
EIP
dictionary
Publish
564
##omd
PORTDIR
Outlook
gqas
Central
Variable
mdadm
610
gmake
RC3
499
XMP
metric
##acloud
manner
intentional
20140
LUN
Playlist
hyp
cz
oauth
##aba
585
apart
mouseReleaseEvent
##Fail
jon
1080
libglusterfs
libgnomecanvas
suppress
country
Sil
upt
##T13
employ
Clutter
SAN
##omb
##nn
Exchange
oomph
c8
namespaces
Breakpoint
clearing
454
##Calendar
subset
ximian
##fc0
searched
datatools
rng
##obber
##d9b
##uler
Technologies
liv
##oz
a8
cos
storing
##urer
##Password
591
Boolean
##rob
6Server
skel
stdin
##uan
polling
commonjs
##d08
Europ
656
Mil
##rq
##da8
activer
d1
policies
dlm
##ulen
397
##Me
##abic
seahorse
heavy
pdb
##My
warrant
Prot
eject
codegen
Clicking
0300
RUNN
MX
##KEY
##b08
pieces
wx
Sans
AbstractBundle
libsmb
jsdt
0xb6b
Order
PKCS
slash
##topi
##ef8
sin
impression
##483
susp
Parameterized
QVariant
vb
##iot
significantly
Scope
KP
writer
Previous
otopi
##ACHE
ipc
##factory
##6000
##ipa
appearance
##acet
COR
evaluation
Mc
0x8b
rdma
##nk
##Nz
##4000
INBOX
describes
silent
##mode
##apic
developed
##oooo
clarification
describing
Ruby
yield
Center
Computer
QSocket
spacing
EditorManager
anc
balloon
Throw
##orders
BSD
##Title
convinced
SYNC
notified
Nice
32768
fund
brack
##ixbuf
0x00000036
TestResult
Bluetooth
c6
ported
1x
QD
texteditor
Annotation
dumps
1M
##TL
Low
blur
##parse
ycp
kdesvn
F1
##C5
desktops
ltk
##PEND
overhead
mr
##Hover
##konq
##graphics
##Listeners
594
##12f
##Min
pf
##Locator
MIN
chapter
c1023
##omic
Multiple
##cf8
Alternatively
522
0x07
##Working
584
##NI
##estamps
triggering
adjusting
##sr
##ico
nsID
6f
##dc8
Wno
##ed8
slab
Series
Space
##zypp
##uit
easiest
NEEDINFO
0xbfd
OBJ
##Background
##01b
##E8
1677
Question
test2
##bsd
pkcs11
##GC
Postfix
texmf
##dav
##plus
adapters
##orized
tempest
##imum
##96e
bh
##ea8
##a70
Orbit
subnet
REPR
##df8
##dup
convention
repomd
involve
esi
##Presentation
##olves
##ee8
aspects
0xa2
shipping
vbox
##Oper
B2G
material
accu
Contain
470
487
assets
408
tru
sigc
insight
v20140
1310
##Print
firew
##D4
Builder
##ously
stage2
ATA
kthread
##Sy
ordered
##ultaneous
everytime
brain
recipe
computed
cloog
ignores
##enkernel
##fa8
Glib
##ce4
755
Debugger
human
ein
merc
READY
JPA
evdev
libsystem
Pict
##3B
##487
controlled
2x
##wifi
unm
declarations
mozbuild
Reader
mun
##ament
##ectors
indexer
ACC
jbpm
autocomplete
gps
wsgi
HAL
dumped
Xt
##ab2
603
upgrades
477
686
##a10
Reduced
CPUs
##XM
10485
0x7f3
R3
##Lm
Connected
wording
##bc0
0xb788
linker
##address
##rott
toolchain
##ECKO
Hor
association
##Hint
incident
VAR
ata2
0x003
pacemaker
atl
Timer
authconfig
##ercial
##ogl
##Total
##esis
subscript
493
##1150
Mik
DefaultClassLoader
GECKO
##endars
deleg
0x009
microcode
6d
407
mounting
##IFEST
libl
contrast
VFS
tainted
##arg
##adaptor
##5a5
instanceof
472
##445
##pol
0xb5f
jdk1
ttl
Vista
misleading
revents
PLUGIN
395
##Vy
0x812
##rele
rgn
COUNT
MODIFIED
brick2
Overview
##XY
s2
BLOCK
rwxr
Tuesday
exhib
LATER
RSS
libsoup
##Ware
##oted
##Startup
gnomevfs
##T12
installations
reflection
maximized
MANIFEST
PLAIN
exits
refcount
Capt
##EPS
preprocess
retrieving
HA
Math
646
381
##F4
deactivate
##uv
spool
krunner
0M
Chat
##RY
compositing
##modified
Maintainer
QSocketNotifier
##tf
##Lister
##264
20070509
484
repair
##ansion
queued
ebx
GPU
writable
##Signal
##aled
##oyote
391
wontfix
commercial
##igure
pit
0x405
sqlite3
c010
backingStore
commandline
Spanish
##Net
##pZ
##5b8
xrandr
sr0
##Equ
##cher
##olid
Assigned
apologize
##ecord
het
Vijay
##dd8
scaled
enforce
##ECKS
enables
stdio
Bo
recording
##Trace
a11y
Subscrib
##f80
collected
topics
fa1
forth
##hard
JPEG
##QQ
631
0x00000030
jasper
OP
##isting
##PTO
JavaProject
CHECKS
ASSIGNED
Lin
consumers
hmm
0x811
expir
405
opfedar
pilot
##ids
0x7fd
MET
nowait
percentage
##np
Lookup
OCSP
bot
##ao
existed
##import
##anith
opposite
pdev
opport
vcs
f4
##vpn
Axis
##ffd
disables
GList
##Schema
FEAT
IMG
Until
##iguous
##sm
extragear
heartbeat
selects
intermediate
##interface
##herj
##ukherj
um
##late
##icient
QAbstractButton
uni
dies
Retrie
##YNC
ASTNode
##isco
fc11
cul
filenames
##e08
0x00000032
##101
gotten
##claim
watchdog
PCM
##lon
##jd
itemviews
Bookmarks
assistance
kdenetwork
0x00b
GEF
##ECTED
406
635
incon
##Until
0x1a
gdbus
##BC
20050
gitweb
TreeViewer
##A2
resolutions
Hyper
##1394
e820
c02
##Details
subvol
modern
kipi
##Pub
##erme
0xb60
stagn
gnom
RAP
0xae
setenforce
remind
Branch
bulk
standards
libnecko
REP
ideally
##990
tople
PAM
##eshark
##emy
##ufacturer
Latency
cycles
libzypp
##msg
##Stop
rsa
nsprpub
gwt
##XS
symptoms
##clock
##eb8
thous
Ak
shutting
CGI
##D1
literal
idl
fc22
606
##color
intend
##alsa
##Recursive
##a90
cve
1024x768
0x76
0x1c
votes
KFile
nV
##lures
fa1lures
mentions
fluent
operators
proposals
Ens
dma
##380
forcing
##a50
indexed
inherited
##0002
touched
Ath
Iter
##b20
transient
##owledge
##ippet
choices
trees
kubelet
BETA
0x38
##nesday
Pas
customize
##king
STEPS
877
dirsrv
##oked
pow
advert
capable
careful
newInstance
cells
DISA
builtin
Instr
extracted
Adam
aaa
updater
##lective
consume
MozReview
rotation
genkernel
ios
Forward
385
Fil
0x2b
Joe
##undred
TMP
das
vm1
##eon
activerecord
ASSERT
465
##ec4
Lion
Generate
107374
insecure
complexity
##UTILS
cle
r6
XEN
##1700
##MAIL
rotate
freebl
MY
##c04
##e87
stagnant
##icu
Moreover
Connecting
proofread
stepping
##ursday
simplify
##affe
pun
realm
0xb1
##T09
0x97
##ancer
Office
REPRODU
##ivileged
4p
##FR
GSI
##async
##T17
XDG
exif
gwenview
Such
##AMES
dsf
prepared
0x21
DD
spelling
##anata
20110
LIBS
intuitive
Russian
complains
calculated
##ensus
rebuilt
stere
Statement
##gw
slots
TER
Modified
danger
CHANGE
##ieved
Tags
baseline
gaia
Juno
pic
seam
515
lft
Registered
20170
QPoint
##Sheet
gradient
##WindowSystem
##▓▓▓▓
468
Bricks
983
JO
##Move
##ExecutableExtension
VNC
Laur
##lector
sometime
playbook
resetting
tg3
4X
##anderme
reiser
speech
##writing
rvanderme
Calling
rvandermeulen
converting
##Execute
DISPLAY
Schema
representation
retest
563
00000000000000
Plus
customization
runners
perm
typical
##Co
ati
Docs
##a62
##Prepare
R4
qmp
illustr
SOF
shares
SELINUX
NETWORKING
reconcile
872
M1
##otion
##applet
placement
fly
ghc
##http
PI
gol
##58e0
ENV
adjusted
mx
##raries
Effects
JPG
##CES
assembly
0x000000010
VIA
##Rel
JavaElement
luc
##82f
0kB
mozillians
Novell
GlusterFS
crond
transformation
888
licenses
lid
sms
UDMA
##Ge
Mb
qs
mailinglists
##erama
704
Primary
##ffected
##QA
Modify
##abit
Downloads
##ostart
concrete
##wp
INET
##can
UNCONFIRMED
##MetaObject
accum
bnc
##55b
detached
hundred
##ocate
Clone
nsMsg
DTD
##DO
##omation
timestamps
##a08
toplevel
bul
##E6
0xb6e
ax
requisition
##party
##C8
deferred
##fe0
##af8
##7f2
junk
##SDL
edi
##AppShell
d8
##Zm
##keeping
##16c
ranges
marble
Bill
glue
##gtk
##icked
REAL
vp
powers
##avis
BVT
distinct
mailman
##DFLAGS
4000
568
jack
##style
bean
##7fd
##Endpoint
sigs
442
##pers
consumption
##ftpd
##ois
##7700
auid
496
releasing
Katello
8443
agreement
##ec2
gtkhtml
Delta
tendrl
##rm
FATAL
##NV
autos
##Driver
efi
wp
actors
stores
saves
##Interval
wsdl
##TWARE
##ab6
095
##reshing
##7f6
SOFTWARE
##amin
##render
##cellent
pasting
##36f
##aserver
Leopard
8888
FIRSTBOOT
SRC
handbook
majority
webext
5Server
##isted
explaining
##okn
0x7f1
guard
##ailability
##Delete
##fe00
##rano
unzip
Snow
0xa4
ELFUTILS
##ulp
##Ready
e3
##Cmd
tcpdump
##photo2
FEATURES
##noop
FORM
##ec9
messed
BLK
20030
##TreeView
##relevant
bugid
434
##Receiver
prim
##upt
Special
0x808
Flip
five
comma
##k1
sad
##qp
glx
Minor
##3b4
lease
0x412
mapi
##afb
chipset
Features
379
workarounds
kexec
togg
LDFLAGS
internals
incub
contributor
7b
Ni
songs
##ACKTRACE
sdb1
libXxf86vm
Fill
git201
RC4
provisioner
libQtWebKit
##ufficient
838
##E2
Ep
usbcore
##phone
##ism
648
##af4
MAKE
fops
TS
##disk
Wednesday
t2
EFLAGS
gtk3
sanlock
393
##Tx
remoting
throwing
balance
moz2
freq
marks
crafted
jd
##UA
##B1
473
513
consuming
uninitialized
Besides
##OPE
##havior
##KTOP
##iu
##Reply
532
##19b
516
##T23
tonight
##reens
httpclient
##elt
populated
completes
libdw
mongodb
##names
##0004
##Drop
needing
VMware
carefully
517
rerun
##fac
##ffc
##gram
frustr
##wm
KUrl
17015
defining
0x814
eq
##efc
Locale
##WM
Market
A1
logv
533
##connection
memcheck
##TypeBinding
Originally
##TPUT
##Connector
OO
Impro
960
0x23
shrink
##harness
##WV
wip
##CondVar
actively
Pranith
housecleaning
##3C
ide0
libdl
FAILURES
##bort
##469
00000000000
2e
SYSTEM
Gw
Jay
EventHandler
KDE3
0xb62
##REAM
altogether
576
Identity
el4
TestRunner
##lk
resolv
prompted
fips
mercurial
bandwidth
732
##AIL
Unsupported
Tx
ppc64le
439
overload
addressbook
615
##aked
ATTR
##Ym
Land
##fb0
616
MethodInvocation
deadline
0xa7
devenv
##ba8
Housecleaning
UDP
accepts
MAbort
619
destruct
e2
mich
fgl
autogen
pk11
0xd0
Tomboy
SLOT
outgoing
resulted
0x46
DBG
natural
##B4
node1
##imation
Sand
750
##icle
ata1
latin
##Op
converter
##relation
calculation
ENTITY
##mdk
0xa8
0x0000003f
KDirLister
caches
managers
extents
CLIENT
455
##cec
createPart
fsck
##755
1074
Wol
0x7fe
Include
GConf
##che
##463
Prepar
##ROUP
0x34
amd
syncExec
##ea4
cyg
openswan
arrays
##odate
##Trust
DESKTOP
##uns
CR2
##haus
CV
wav
0x40a
ANSI
##A4
##MD
discussions
fc23
##T08
rtl
UDF
aborting
opfednr
libsmbclient
Vir
Kill
##7b8
433
##FileSystemWatcher
WIP
letting
##forme
##cpy
Present
rhel8
479
460
nio
meaningful
NU
usec
0x7f5
expectation
##arin
##x600
Thursday
0x7fc
retrieved
##abble
Messaging
##Find
scriptlet
Manifest
zu
baloo
3e
1152
BVTs
canonical
Front
notifier
authors
stress
facts
WebKit
##mdb
ntfs
wine
hdd
redo
committing
423
459
WAITING
qxl
##Order
##vidia
FILTER
Expand
OUTPUT
cg
##ugh
##EventListener
801
Empathy
akregator
##assis
kdepimlibs
##ota
uploading
timeouts
##T19
irrelevant
ARG
compositor
##ponsive
509
3c
jse
portable
##svc
occurring
culpr
##aa8
teams
ORBit2
Welcome
emp
1048576
##Und
safely
0x00000000000000
responses
enablerepo
##481
##3R
##hash
whitelist
LTS
typedef
##etary
##fs2
mw
anyways
Applied
mistaken
BE
libpo
unittest
##eller
f3
Logical
##iago
##Sequence
POINTER
0xa6
ending
trim
##c03
remot
makefile
##Multi
##apse
wise
##notations
iptable
Cc
##x16
##ubs
580
##Trap
##Utility
Konq
MozillaFire
Symbol
##Pressed
##ala
fpu
mandrakes
977
Bellur
fglrx
strdup
restor
0x1d
kdenlive
CPS
reorder
##T18
PASSED
Lead
##a02
##Help
##obar
mandrakesoft
logfile
0x806
I0
##posing
##value
##Observer
##7f9
##441
##aham
Deleting
##ees
Samba
##Malloc
relationship
##Inc
piix
nicer
##Lif
nVidia
##filesystem
##container
781
handy
##Requestor
453
0x7fa
##Serial
StandardPipeline
kc
##MC
strlen
GO
##F6
##ening
##0003
iFolder
serio
ktorrent
##oning
Actions
CHECKSUM
Portal
imake
demux
accompl
5c
##ac2
Wayland
##GA
runWithEvent
##iting
##initely
fc21
##transl
Raghavendra
##elly
##ften
friends
##0t
##armor
WaitCondVar
##elix
##apr
cloned
lgpl
0x25
##aphore
Personally
kg
kword
Keys
##ilian
eliminate
##ac6
touchpad
438
ptp
##ibilities
##SEL
expensive
aliasing
refreshed
INTER
Built
##ca4
speaking
##etlb
9f
Phase
530
Ear
566
closely
Commun
TRAN
0x00000038
##ICT
cable
##UU
Studio
9b
Cmd
clusters
2c
JSContext
##AvailableJob
##otypes
##eat
blame
Kepler
##de2
##services
Sams
rdu
maint
0x810
SUP
IL
retries
482
##d8c
##parted
QAbstractItem
0xe0
Incre
##affeine
##64b
0x0000003b
##TB
20120
reproducable
##Common
fetching
ty
multimedia
##ff2
forall
DTOR
downgrade
##cc4
relies
dimensions
Printing
##celeo
Organization
kscreen
compliant
Fab
##01f
##help
##parts
preset
regress
conflicting
##apes
##1800
##ociation
Tri
##perf
##binding
vectors
Graphical
##7728
baseadaptor
IOException
##astien
Ceph
NOR
getElement
simultaneous
Poss
##e88
mockup
Mesa
kfile
programming
##Parted
##Artifact
duchain
bob
argue
SIP
siblings
libkdeinit4
##WD
permanent
CompletionProposal
webadmin
Trigger
11350
TAB
sharedPainter
imapx
toolbars
hom
subj
##evie
CTabFolder
c9
##PD
feas
##custom
effective
734
Zip
vcpu
rhythmdb
##sol
##hen
815
qq
##Jl
Stepping
sendmail
0ubuntu1
Backup
##Gen
Sort
libgcrypt
##E4
unsure
Ra
ltrace
##Step
anchor
##Pending
659
Often
lll
createExecutableExtension
kubuntu
calendars
seed
Arabic
QQuick
porting
##CAST
542
622
0x35
JavaCore
0xaa
##Based
##20b
Really
##ee4
Better
##command
forb
ought
##enda
approve
synthetic
##96b
relying
20160
##5b4
##tex
Manual
##oggle
dxr
##V0
510
incl
Fixing
texlive
##wdata
579
Maintenance
asc
##ileo
reproduction
golang
encl
OCP
0xb7c
openoffice
xauth
804
bzip
592
Boud
##stats
modifier
phy
Events
boundary
GIO
0x80b
signum
##Backing
##Export
526
538
##461
559
SI
##icast
archived
foundation
risky
##IES
940
##Raw
milestones
##Mask
Camel
##C9
##ESTACKTRACE
Big
##E9
computers
Swap
initiator
Gig
##upg
cold
RPMS
Beagle
resized
##ecc
##Draw
##acb
skb
captured
adm
4XESTACKTRACE
##Mb
##T21
##etings
##Canvas
threading
redirects
##Burn
cmp
GParted
multil
drawable
##content
##aching
0x31
##ETWidget
825
##idump
446
rsp
##aca
##ListView
u00
##serial
##36b
##selink
numer
tiles
##enty
celery
##F8
KEYWOR
bi
UA
clam
8086
##Ev
Doxy
a6
mcs
##74b
677
libXxf86misc
QETWidget
pen
DIRECT
431
DOWN
Layer
##a03
##HI
629
##Media
##db4
M201
##zu
0x32
plot
REPRODUCE
##E1
PUT
borders
staff
Going
AWS
corext
alphab
##END
culprit
1700
rekonq
resp
LS
##cairo
Regression
keycode
0x43
forgotten
Duplicate
##oprano
associate
##Explorer
nanos
0xb69
##akov
##a83
MOZILLA
986
sooner
544
##orian
##sw
##Pref
squid
RSP
##zt
deactiv
577
##Themes
iv
##UXT
deser
##5f4
##Notification
##flash
Blue
queues
Cell
IResource
libXevie
915
##allen
authorization
hwdata
##D2
CAs
regexp
##Red
srcdir
homepage
##3700
##forward
libXfontcache
Pascal
##dc4
REMIND
##Vu
##F1
Exam
##5700
PyObject
##elson
Anything
Copying
cryptsetup
six
1140
seperate
554
556
Recomm
instantbird
Tot
rebooting
519
Amaz
##EFT
ews
twitter
##f08
pager
##fb8
Milest
vpn
stall
DP
##736
libXTrap
AspectJ
##ÃÃ
involves
ot
752
v5
4K
##fff700
##Att
matrix
deltacloud
exporter
Opera
Yan
Plugins
architect
ipm
EclipseLink
Especially
buildId
##dd4
holds
je
##flict
Ensure
mozharness
CONNECT
0x813
##80b
mainline
##kJ
highlighter
SELINUXT
SELINUXTYPE
744
fstat
604
convenience
968
D3
7fff
rc3
##ii
##hu
intro
userspace
##qe
combinations
opportunity
##960
Exif
Trash
##plash
autor
##ZZ
whats
##Ug
galeon
##plugins
##Broker
conclusion
##df4
quickstart
graphs
572
##d78
1100
##54e
383
inserting
##8042
PackageKit
nanosleep
##d04
accepting
588
Libraries
##35b
wraps
Apologies
yellow
worst
pvc
setVisible
##ICES
##adio
shard
##ef4
sendMouseEvent
##Go
##Nj
Jetty
pty
##f70
PACKAGE
##sdk
propri
##ManagerImpl
expires
##stacks
0x33
daemons
continuous
574
##Certificate
Pulp
fish
DCOP
german
##Breakpoint
XSD
##EditorInput
Clam
Someone
truetype
##B8
singleton
ffffffff800
xhci
##16b
REC
##da4
sysctl
620
placeholder
xdm
checker
##elling
registering
##Mi
Ent
uninstalled
0m0
wrappers
migrating
fits
Keywords
##C6
##7000
##rections
planet
##D6
foreign
restriction
exclusive
LaunchConfiguration
KJS
##eration
contract
ost
##MPT
websites
##Mo
Arial
Est
##ries
##Nodes
guile
Orion
##Advisor
square
##fee
managing
IFREG
##oton
overriding
recompile
##dff
##1024
638
##01c
0x1e
complaining
sequential
##Creator
##aX
globals
##HandlerImpl
decorators
Compute
mort
##lint
apiserver
##80e
communicate
Agree
detects
##r2
eip
##Correct
##aser
Len
##01e
##cb4
pseudo
##56b
##17b
##Body
##c02
Az
ffffffffa0
##730
elabor
##NotFoundException
appropriately
suites
##Formatter
aliases
##fler
receives
PCI0
##Pod
everybody
##averse
Begin
##gel
##Super
##91b
gmarshal
Empty
EPP
Buffered
##isplay
##ffffff
v7
wallet
##debug
000000000000
libicu
urgent
0x414
##Security
dan
elect
##34e
├──
##aeb
assemb
Sebastian
a9
##yst
##roduction
kcontrol
##locks
##d84
##activity
##9700
##iel
Ital
832
sda2
c5
SUN
##75b
Feed
##uable
##lev
recorded
alerts
##LL
Short
##b04
##ad2
##fa4
901
Esc
recurr
654
KF5
##d2b
##cf4
translator
v20080
moch
RHEL3
opts
963
##arks
unplug
Namespace
PT
curs
##hg
Cr
suid
openEditor
opensource
##Compiler
Wireless
harm
##ivi
##aaab
illegal
896
aop
387
LEFT
##ad6
471
0x4000
sata
##f40
squash
Assign
##Arch
carry
##ArgumentException
637
bars
##da3
QMenu
SF
##00c69
OVER
##easy
optimize
structures
##32e
##lementary
##alm
Denis
expire
frees
pulling
##82b
repeatedly
vsftpd
PartStack
435
##usader
##ewijn
445
bond0
030
gir
483
##VR
595
##anj
Qual
permit
2fa658e0
##d88
##orum
KEYWORDS
45700c69
667
procps
llvm
Observe
existence
Soc
Megert
getattr
##OPT
##465
exporting
BROAD
grammar
diagn
567
analyze
hadn
##ceb
0600
650
##f20
535
##urve
Creation
OPEN
N200
ter
structured
surely
485
CXXFLAGS
##ac9
##beb3
Requested
652
##58b
0x45
##a8c
9a
##stant
passenger
hmac
soa
libgncmod
528
attmnt
##740
HandleEvent
ark
##3030
##9999
COPY
databases
Dispatcher
##ensitive
573
##iger
fired
1002
gtksignal
##Mz
Tracking
##blk
commited
enablement
##daptor
libkdev
Patches
Timed
bras
660
507
860
##osync
Filesystem
GFS
##enz
767
inconven
##oles
objectClass
PK11
##tbld
chunks
TIM
thrott
pwd
Boudewijn
cltbld
##ür
##oris
##ceptions
Chip
silly
##M6
BROADCAST
MSN
##agnostics
478
L2
jsefler
ajdt
exploit
slide
0x00007f9b
tickets
##TestCase
finishes
conduit
844
##High
libop
Reboot
0x00007ffff6
1G
Pending
##rid
##33b
LEVEL
##ef56
##Lj
##k2
telnet
busybox
##BootLoader
CORBA
Carbon
##iated
##ITest
680
Mean
afa
yout
##etheus
validity
##cia
##alld
##masq
RCS
1001
546
0x413
624
##upal
##ef7
##Ii
Below
##acter
BraseroBurn
##dee
submenu
694
##ba4
540
##f30
libdaemon
chassis
820
##0s
myp
##ius
apparmor
447
screw
Fre
##Metrics
##x1024
Touch
PaintExpecter
ResourceSet
AGP
wa
Caps
##y2
557
opa
PERR
##ebrew
autop
titles
rpp
##X11
Possibly
764
GNOME2
hacking
MATCH
##rate
Andrey
740
blockUtil
mysqld
routes
blockUtilClear
sans
bzip2
OpenSSL
Marble
hv
Jason
##urious
##orean
adopt
##54b
441
0x805
##ee6
##55f
##anking
nn
0x3f
addressing
cdr
fedpkg
##72b
Seamonkey
##2400
wildc
##spot
offered
664
##crash
sensible
giop
b9
├─
##defs
##Owner
Williams
eclipselink
REGION
##d48
##DY
Jar
Mach
##KC
Inclu
dismiss
restoring
dhcp43
##wo
suppressed
debug1
ephy
getter
apologies
APP
##UC
Draw
##df1
010
495
KI
libfont
maximize
##d1b
Philipp
rail
memcpy
IllegalArgumentException
##Single
resort
referencing
Paste
##Inotify
activating
Sirius
##scroll
nsIPresContext
##click
processors
##d98
##19f
##ICAST
##scan
kj
headless
e1
##obj
##Player
bonding
fenc
gnupg
Instant
0x00002aaaa
orang
##7fa
offending
##59b
VS
lvs
##cdd
8000
gint
pata
##ipper
Tel
paintS
retain
ISA
##92b
IX
##even
##360
props
##uguese
Redhat
dnsmasq
CMD
orphan
Anyone
waste
Wrong
AbstractTextEditor
##ukas
570
0xfffffe00
##9e39
##Parameters
##eb4
proprietary
##adim
481
458
OSD
Configuring
javaeditor
Niels
880
1090
##nalda
0xfe
BundleHost
motif
lion
##52b
IPV6
lag
DEVSEL
##iers
##CSS
##cy
4G
banner
##F9
##Bin
##gv
Packager
openvpn
recipients
##32b
##DEN
backlog
radi
loose
##eeded
QDBusConnection
nd
##aa4
strcmp
BUS
##d6b
suffer
611
##Vz
powerful
ple
air
discussing
gboolean
Ci
libata
dos
##Desktop
##11b
introduces
531
##OUR
suspended
Samsung
666
brasstacks
picking
698
##UILD
702
rescue
1082
##d3b
merely
weld
reiserfs
scrolled
excluded
crazy
##net0
Decorations
Patrick
##aten
Connector
##inn
isolated
youtube
overlap
##16530
O3
##B5
ocfs2
Anand
invalidate
##uzzy
deeper
##Packager
##15b
##76b
850
ME
printable
##enario
Thought
swing
summar
cancelled
Rempt
##alker
Drive
##Closure
Gwenview
855
Facebook
gparted
##ef3
##E5
hyperlink
Ber
##raft
##Nl
newline
IconThemes
establish
Sanity
##etlbfs
##Num
20020
##5a6
796
LOCK
##fun
priorities
regularly
632
e9
GeForce
##Product
##db1
libz
Installer
688
952
##position
UHCI
AFTER
d3
##dac
##xs
578
0x74
EventThread
##Activity
icu
Ja
guaranteed
##atum
##udge
##IMIT
rhns
Nope
582
653
668
Stable
Bulk
edits
##cbb
vlc
iwlwifi
##zh
trip
##otherboard
##uple
conftest
Provisioning
##arek
libkopete
##30b
874
Talk
radar
Loop
Variables
Doug
##estore
##71f
Executing
##COMPtr
##a98
shif
##IIII
KT
Vibe
capital
collapse
Birt
##c28
##5a9
##FileSystemWatcherEngine
586
Athlon
##efactor
945
Sund
##ewrite
compact
badly
Enh
handleWidget
776
guint
DELETE
427
descriptors
##transfer
Occ
Alert
Previously
TLSv1
Vog
vac
orangefactor
Merc
worksforme
KeyBinding
rc4
stalebug
##ecb
failover
strictly
##73b
restrictions
560
OpenSUSE
mnemon
##c2f
QXcb
Hmmm
confirming
promote
##oice
##ddf28
overwritten
##oped
##54f
##5a2
DG
w732
602
grouping
OPTIONS
##TM
467
venv
##fortable
##ebb
022
PDOM
ENABLE
glass
ctor
##12b
0x49
MTU
##f04
Combo
translateMouseEvent
malicious
0x62
##ANCE
##Theme
respectively
##eba4f
avoided
Photos
876
Discover
##d68
##94b
investigated
696
##obb
587
##72f
Roman
cwd
6e
##ab3
Amer
1022
deletes
##a1b1ed
nsIS
##a32d96
Quant
123beb3
612ddf28
##c3916530
##d47ef56
##a97a32d96
##11509e39
##eba4f11509e39
##a1b1ed1ed
123beb3a97a32d96
612ddf28c3916530
##d47ef56a1b1ed1ed
##eba4f11509e39da2
123beb3a97a32d96eba4f11509e39da2
612ddf28c3916530d47ef56a1b1ed1ed
##BackingStore
##ming
0x8f
##network
##AYS
##Perform
soap
claims
##df6
##beb
authorized
rbd
VC
##Bindings
1084
straightforward
Side
Christoph
xslt
thor
##24b
0x8a
##Entries
614
167772
##467
##d8b
Fields
##je
ifconfig
GRUB
nsCOMPtr
##▒▒▒▒▒▒▒▒
##Busy
texinfo
##c68
##quis
548
##pring
Filed
painter
rhvh
##ab9
Nevertheless
breakage
faq
Milestone
feeds
feasible
lxr
desirable
##olv
##50b
##ikit
##14b
ult
GE
##uh
953
f5
##OU
##adf
0x7fff8
Mandriva
SAX
testc
##ringnalda
philringnalda
x509
##db2
##Fetch
heur
Jose
0xa1
518
QInotify
SND
##iko
##iblingsRecursive
Sant
##UAL
##90b
interpreted
##Parts
mtime
##dsm
##T07
##deb
xpt
gthumb
##cc9
INFORM
0x00000034
foobar
##77b
viewed
##USED
notAfter
PNP
Opal
ease
QStringList
ea
mbox
##T20
CBC
QInotifyFileSystemWatcherEngine
475
rollback
##7f3
##ums
duplication
##systems
Disabling
messenger
dereference
711
GIT
DSDT
unlimited
Range
007
Putting
wid
emulation
Talos
726
Suse
meld
##abi
3f
858
subdir
wire
##T02
##82d
##T06
buglist
##ocs
kv
##onna
rhnlib
paintSiblingsRecursive
Snippet
Misc
0xb5b
gabble
Va
##ec6
##lave
LGPL
6c
rr
viewvc
dconf
##Mapper
##Modify
aus
Objects
008
ackn
##T00
##emer
gover
facing
dial
occasionally
970
0x00007ef
##guard
admit
##ecf
##Accessor
Jim
BU
##A9
brq
gofer
##nR
Conditional
##anet
BACK
0x66
##10d
opaque
##jk
##GW
##ea6
hr
684
##c48
QV4
599
##Fix
GTK3
##Grid
Aaron
xfce
dcop
SQLite
Stopped
KJob
cheese
598
pls
keybindings
##DEBUG
kinda
MODULES
INFORMATION
##78b
##icipant
1032
Neither
##allery
greatly
##looks
##stray
omit
##cg
##ce6
##ensive
##52f
912
##ometer
hurt
lan
##b02
taskID
##yl
724
Ax
arrows
qdisc
690
aside
gmessages
##Shortcut
kdeinit4
wallpaper
669
Lazy
kener
##ce2
639
flac
##Problem
596
mpt
TZ
dnd
Tem
kenerl
Tar
endl
SHA256
mplayer
##isec
Edition
##84b
d6
renew
wind
introducing
##abf
ffff8801
##ipboard
objdir
unexpectedly
MozillaFirefox
GSS
##f0b
##31b
MULTICAST
##F7
avoids
##mine
##Shape
##130
Wayne
dangerous
flexible
variants
774
pstack
882
##ZS
Blocks
0x00000039
##ouseEvent
976
0644
hate
tips
iOS
##b0b
##ackware
LEN
np
##Mg
##izz
8c
##bre
##Fs
##be2
unders
termination
722
##Right
shorter
##13b
Extra
023
endian
severe
GError
replaces
##1b8
DIV
##Last
##unte
contentassist
revised
862
##a3b
Effect
##2040
ourselves
rabbitmq
0x00007ffff4
fundament
journalctl
libasound
##plain
##53b
##Params
##topic
alien
011
il
kal
libgstbase
unresponsive
xbase
449
indexes
numa
WTF
##d58
Forgot
2049
libIDL
Needs
Developers
EPL
sq
ft
##pages
kwin4
InternalBootLoader
##Phone
til
WebExtensions
rake
fc28
QMouseEvent
##a48
##16f
gtkmarshal
Javascript
elaborate
##assin
StartLevel
##780
##etically
oscar
LL
0x36
##b0e
deny
##3J
##Pos
isEmpty
Alpha
nvm
##Adaptor
##ab1
800x600
##SL
DESCRIPT
pppd
852
##aq
unf
1077
C2
##T01
reappear
optimal
##Transform
##TimeoutException
Dump
deskbar
slight
kile
SafeRunnable
670
apparent
combine
##Activated
0x884a
bes
blink
processInvocation
##Filters
audiofile
drops4
additions
489
ReferenceQueue
##ormal
##ato
##avel
##d7b
964
##ff6
RGB
funny
##9b8
softokn
##d5f
contributing
Smoke
Jer
XT
##HQ
##Z2
##ched
##ils
CST
PREFIX
BPM
Moved
NODE
##Keys
SAS
##50f
authenticated
simplified
608
Secret
##econfig
Puppet
WIN32
##c01
##Lazy
testSystem
resteasy
##ISHED
QText
TL
Http11
683
##W5
faces
##76e
902
0x4b
regener
Prepare
reverting
latex
##adir
Workstation
##ROOT
Helios
IRQs
validated
Kerberos
DISABLE
tracing
serial0
MenuManager
##implement
fPIC
##hm
1440
322122
##cam
##99b
obsc
basicBuild
Sense
##AJ
##Constants
922
##94f
NotificationManager
sour
##d44
##wrapper
DEP
Logs
testSystemPages
##EObject
##V2
data1
##bee
iconv
##a09
stacks
0x884a1bc
Nexus
##chen
Hyena
warranty
bugmail
##de3
##odings
Availability
##Ij
##FX
meanwhile
##itsune
vuln
Reload
##cz
##acho
outstanding
solving
613
tk
0xf0
autostart
##IRA
Playback
451
segmentation
extern
##sof
##Configurations
CSV
##itate
##be6
##eeb
Automatically
libgtkhtml
505
granted
553
##tek
qfilesystem
jsf
843
Kai
mips
##LETE
meminfo
##azz
usersys
EUS
##dfb
candidates
vc
Timestamp
##Cor
expr
imm
0x2a
represents
hosting
Reass
wireshark
##bon
##d28
ARM
Provide
libpoppler
962
##Disc
Portuguese
##About
glsa
Phoenix
EObject
##ab5
devic
##Analyzer
nsX
##Obj
mpath
##Scene
Darwin
Limit
##ration
##88b
856
0x40c
provisional
World
##bay
##ement
Qt5
Browse
916
##oking
##hy
priorit
506
proxies
Merged
gasync
##GT
##JK
##orbit
topology
determining
Rhyth
866
Technology
##edu
CALL
##svg
##BufferSize
mari
0x0808
tester
##a05
1044
##ENSE
Geor
Modem
coordinates
##Effect
Sie
XFS
Sunday
Nor
##geb
##Constr
##d02
0000000
RAX
842
##ampu
##avish
Administr
CHAR
##Accel
##tained
pkar
ffffffff801
1208
qfilesystemwatcher
csh
operate
583
##UTE
##axy
worried
0000000000000001
pkarampu
mes
##isely
podcast
##ad3
mochikit
pools
##dcc
##910
##A3
##Jo
##Transl
##break
##oker
NOTA
##relm
menubar
Packaging
encouraged
##cnt
642
publishing
gasyncqueue
atm
##94e
##db6
KeyBindingDispatcher
##fmt
Snap
c04
##A7
##jj
##96c
##73c
Ka
##AW
##status
Lifecycle
##ynch
SERV
##forms
ik
eps
##dbb
##dc2
initializing
914
corosync
ACCESS
##MQ
##asen
##Being
0755
WORK
##53f
frequent
##00000000000000000000000000000000
##ulating
Mercurial
##urg
insufficient
restarts
##embed
GeckoView
stating
##86b
##ITIONAL
MIQ
##c0b
1003
study
##0101
minidump
VERSIONS
masked
##Results
##p4
IPC
0018
##92f
reachable
##umed
switcher
##DocumentProvider
collision
##CTYPE
##apeople
nu
ell
ntpd
libjpeg
##LEAN
fedorapeople
##Assigned
forces
constantly
livecd
benchmark
##e2b
##ses
##ca6
Enabling
nsresult
Lightweight
favour
Pulse
recommendation
HashMap
628
surprising
##werk
webpage
rpcsvc
Usually
##UIPlugin
##dd6
XF86
tracer
##ed2
refreshing
##ountp
pushlog
IU
##avier
stor
##cpus
Remember
1010
troubleshoot
waits
##e2f
presentations
562
854
0x082
JDI
##7f1
##JDK
##a06
Abort
672
982
a7
brd
Toolbar
nash
##T03
adop
##FL
730
##W1
##cd6
sanit
886
##WINV
alex
##3b6
WinXP
BusMaster
Greetings
keyp
MemWINV
Navigate
arith
##9f4
ieee
762
911
capella
VGAS
SpecCycle
VGASnoop
##stone
Dash
##52e
staticMetaObject
924
##810
codehaus
gssapi
EAR
##c4b
cracklib
NOTABUG
1020
runtests
##ria
##73e
##logic
ext2
##Member
##T04
##ARCH
KConfig
ssp
clobber
JOIN
0x007
521
serif
substring
##phrase
##d4b
674
wrt
Already
wild
##Mx
launches
Soprano
scene
##rompt
##olo
##Stats
20091126
3rdparty
FIPS
Hosted
eds
Repositories
facebook
##a28
846
##HD
884
##ad1
malformed
TIFF
##hot
IFile
nw
Synchronize
##ONG
ice
Applying
##0x
libSystem
invokeNext
0x1000
Avati
pu
unfortun
##520
523
0x8c
QRegion
Yet
##B9
sett
fc24
##dcb
643
994
ProgressMonitor
releasever
hes
starter
##e6f
##artzScheduler
0s
##Methods
626
acpidump
##inity
KR
##cee
movie
692
1064
interpreter
##Correctness
##ioc
searchfox
doub
UINT
##55e
ESC
EGL
##Cg
Rather
upl
nsb
Phys
##ilingStrategy
Jiri
##ac3
msc
repack
##SourcePrepare
##7b4
unusual
fileName
##gian
confirms
##d18
0xbfffe
developing
IJava
dlopen
848
rhosp
##Values
Priv
esound
##56e
usb1
sgml
renders
##ca2
##SError
softirq
954
##RM
##arian
wi
Ren
F3
##Iw
529
Integration
Doxygen
wicked
Small
GConf2
subprocess
sun16
scsi0
##nam
##Suse
Classic
##SuSE
restorecon
DOCTYPE
Upon
##ADER
##InformationControl
##tz
##92c
##af2
Whenever
persisted
Evince
XPCOM
isra
convers
getName
Selected
##controller
positions
Reflow
price
GROUP
##TYPE
regions
##df3
##REC
URIs
FileSystem
##IBLE
##vec
##ingly
##5af
DESCRIPTION
sized
##Ci
CHANG
fas
mik
##V1
Large
bill
##Tasks
ships
##a0b
##Head
##sv
correspond
##Bookmark
subscriptions
Wal
##ae8
filetransfer
inputs
deploying
##pak
pyorbit
signo
GV
eclass
##E3
cront
##92e
ethtool
CLR
exim
jee
0x4c
CAR
rtp
##asure
selections
##cape
libmoz
##ById
printers
##auto
sigsuspend
road
filling
lua
ECDHE
Dir
##LAY
20180
##cf2
1012
FIXME
##APP
##qr
libdir
consequ
pygtk
isv
##IDEO
873
runTest
##2012
dhcp47
RUNNING
WSDL
1133
compil
Promise
##dc6
sprint
745
ale
JavaModelOperation
##ff9
##eef
0x27
linuxtools
Optional
blind
##Changes
##ByteArray
stroke
##gins
purge
##edf
widgetSelected
stands
##Deployment
##Full
Latin
7c
Der
Marcel
##edump
##16e
undert
Activator
558
VOL
##wiki
fc27
nsWindow
favicon
##Db
##ecom
invites
##7Q
Adds
Rule
##99f
Hide
##ona
Constructor
DOMAIN
instantiate
consumed
959
66MHz
000007F
Miq
translators
Wiki
##Cast
getDefault
##umin
Lee
jumps
Triple
ContentAssist
##A5
greeter
apiVersion
qp
##mill
##reensaver
##Drag
##has
cosm
jem
##ac1
##ebin
sdcard
969
BAD
##ZT
##acer
##Custom
Undo
weave
vary
0xa9
libcairo
kios
JavaThread
EXEC
plays
LEG
0x54
volunte
0x7fff4
##78c
##THON
fc26
##df9
##00f
raid1
Solid
DMO
FD
##plication
##da6
##c06
5e
##Cons
Soup
##a01
Calcul
##xattr
##cd2
m2crypto
scrub
appended
##60b
##71b
##imitive
##ginx
##ff3
835
728
een
weather
##ogram
##73f
COLOR
##T05
605
##chat
prometheus
##ULD
picker
##U1
##ola
##asty
winbind
Microsystems
decrypt
heading
##component
812
haml
##Finder
##esk
Parameters
##nP
##Struct
Compile
smbd
Sar
##D5
##alph
sysinfo
##Director
##creen
##atype
##94c
Day
virtualenv
albums
Ansible
870
throughout
Registering
##e06
##Failure
##a58
Broad
##82e
##ef2
reflected
##itsu
##Scheduled
##Merge
adobe
##Compilation
##a46
reserve
##84f
##arsing
738
##arset
undef
splint
minimized
evidence
##c6c
bpm
TERM
934
Wouldn
##JobsAre
Had
Nik
Token
e2e
hier
##UAS
747
Normally
kexi
##p3
##hananj
857
##AH
##z2
popups
##d14
blockThread
nickname
##UntilJobsAre
##BeingAssigned
blockThreadUntilJobsAre
blockThreadUntilJobsAreBeingAssigned
759
QG
1049
710
##Left
##7b6
772
980
vorbis
1111
##ba6
Vos
##Io
641
PUB
calc
unified
RHS
deployments
pcmcia
iop
glitch
tenant
##icons
##24f
Whether
loaders
##ad7
##anth
taglib
TY
datasource
LING
libed
##7230
SHIFT
pim
##a88
extending
bundled
##Desc
ck
iqn
GCM
Si
##perature
##37b
##uccess
##andy
##Plugins
consequence
##38b
adjustment
834
IWorkbench
JFaceUtil
Es
##DAV
bringing
##uffle
Corp
J2EE
expansion
buckminster
##ujitsu
Herr
##Rpc
##ovo
fc10
inn
0x815
##ierso
rom
##Timestamp
ond
Tabs
836
r9
##76c
taskinfo
##tpro
0x7fffb
MAR
RuntimeException
internalNotify
589
##ec1
dev86
##peri
administration
##video
libse
testrelm
confuse
CONTR
msn
replies
akonadiserver
excess
##acf
##ICATE
##c89
##2C
libflash
libxml
GnuPG
imply
##ACH
bub
fat
##ntl
##cfb
Diagnostic
##Privileged
ICQ
Iv
##arser
##2K
0x005
Community
1050
HIPP
fop
JAX
##avishankar
sunrpc
908
LATEST
995
windows10
opacity
##a18
##ad9
##Snapshot
PYTHON
mg
rarely
fq
secl
##78e
influ
824
TagLib
##c8b
##edir
##56f
overlays
FutureTask
##B6
##Sort
forwarding
1300
974
JIRA
unmain
0x816
0xb7d
roughly
BAT
Cred
##Uri
mortbay
##Non
##erne
mentioning
##x6
Searching
##ysql
continuing
693
0xb6c
928
preload
Provides
a5
Later
ki
fuzzy
##urday
ScriptTimeoutException
Catalog
ju
##e42
informations
LNK
##tag
Mate
##c29
##cc2
571
633
flip
mariadb
##Pixmap
##with
##sync
Vala
30000
766
##db3
##ContextMenu
athl
##ivier
data2
reproduces
xf86
modifiers
Scenario
##Participant
Outline
1052
##External
##e02
DMOZ
##Prop
##b06
V2
DBUS
AppleWebKit
973
Chart
ppd
systray
seriously
Marketplace
gai
rse
digital
##OPEN
737
groupId
owns
##Sink
##ccb
##RunHelper
quorum
fom
NF
NAMES
gim
##ed7
##64f
retire
##be9
904
##EXEC
genie
958
GD
partner
0x0807
weekly
libvolume
asan
##ygel
preparing
053
violation
Jabber
charge
highest
676
736
##books
KWierso
tunnel
Bound
s1
##ec3
##Windows
IntPtr
Member
isa
CDR
Byte
##ReconcilingStrategy
LINGUAS
714
Dj
reused
KIPI
Sem
##iet
##Unique
athlon
##APIC
Jonathan
Backport
##Vendor
optionally
objc
cxf
##HOD
##ugetlbfs
Trust
BASE
Exiting
sorts
##d5b
reasonably
jwh
##ordinate
slowly
625
##dbf
##Clicked
SPI
SCH
Descriptor
automake14
Heap
##lugin
##imize
1023
plenty
configurator
automake15
C1
##Linux
gran
##e9a
persona
Poll
080
##fffffff
LCD
mitig
634
##B3
##HS
GeckoSession
libhugetlbfs
##tre
QWaitConditionPrivate
avg
##36c
##lu
libgio
RECE
##aits
0x47
automake17
rated
diffs
LIBXML
##Pa
##efb
PART
##Cm
##ccf
ahci
##ayes
16x16
scripting
Restore
ntd
LINE
0x809
##h0
tagging
v20100
hell
##e48
canceltype
automake16
##FN
##oper
##31f
t0
##Gb
##teron
##59f
703
limitations
0003
##13f
inconsistency
net4j
839
NP
##ed6
##overflow
ffff8100
OBSER
Cause
roots
CCMAIL
878
POA
##d34
prompts
morph
followup
##adc
##anym
intentionally
transparency
##Fi
##de6
##bef
##eb6
##ServiceFactory
revisit
Inspector
Totem
oz
decimal
von
##images
1026
770
##o1
016
##oi
##d43
assess
eh
##SY
aac
##dde
postmaster
##ritical
##Added
setSelection
##Preview
Vogel
763
##D9
tomb
mylar
valuable
leaf
inspection
StartLevelManager
##craw
postEventSourceDispatch
##LEMENT
omg
Steven
fetched
administrators
##c2b
541
privileged
##eets
##F3
##pec
principal
artifactId
024
##fb4
Nvidia
##pling
Authentic
handleWidgetSelection
Saving
Width
breeze
##d24
##ffa
##tv
traverse
##82c
ORBIT
nightlies
commandPackager
695
760
0x4dc
WIDGET
RSYNC
Hub
##uate
##HL
##hw
Yup
Encrypt
##clnt
sticky
816
##be5
##5a3
overruns
##D3
##E7
##epages
sunbird
1212
cpuid
euid
##ae6
##Marker
viewportEvent
713
892
marc
tax
notation
Lets
20130
Dap
##dab
omitted
##15f
##d4f
qabstractbutton
Ack
base64
##reporter
0x6b
ntdll
testvol
performs
gdata
x1
##PK
routines
581
##aac
relatime
VIDEO
##fa9
fe80
blockdev
718
##kia
##itled
libkhtml
Record
##BQ
##ashion
viewtopic
##lessly
##b09
CHOST
Must
Emacs
##96f
fram
545
ORDER
EffectsHandlerImpl
935
dkl
officially
J9
holder
13421
suspicious
756
BOOT
##ainWindow
##keeper
threaded
##59c
Black
Initialize
govern
##cc6
##75f
masters
1030
##Tray
park
##d74
##automation
errone
##0000001
precisely
617
##vin
ceil
3x
##5o
##e83
forwarded
678
gam
Deferred
Sven
Things
##UNCE
##Remove
xmms
Hebrew
##ETCH
630
##Contrib
begins
encodings
egrep
1280x1024
vice
##d72
mountp
##d86
706
multipathd
FQ
e6
##inf
Clients
##00b
evm
referred
##ila
layoutview
##C3
##d03
ua
##e9b
0x000055
i8042
INCL
increases
##mul
dhcp46
##NextEvent
lightning
preserved
OBSERVED
Adjust
ndev
##d6f
##recogn
outcome
##be3
issu
##70b
redmine
##56c
ems
PartServiceImpl
##ZG
##5a1
##aa9
989
kitsune
DEBUGINFO
682
Tob
setLayout
libgthread
##dc1
14073
sha1
sysrq
Harness
673
##0g
##Oj
Exact
freebsd
##DMI
tied
JSObject
1106
Digest
Kick
##af6
ksys
thousands
##M4
Apps
satisfied
clause
##e43
irr
falls
845
##quick
##ee2
##e0b
##osc
##Requires
sbu
Figure
Popup
Bry
currency
nginx
##ICS
demonstrate
dp
##64e
Place
breakpad
##a84
##ervice
##hint
localtime
tet
commitdiff
##AAAAAA
##Static
unsafe
unmaintained
##Checks
4GB
visitor
748
822
##Language
0x72
fc25
TMPDIR
663
##d38
Split
##d54
SUMO
##appy
Thx
786
##7f5
metamodel
SAM
defs
##d4c
##ea3
##jbpm
894
Tomas
Pur
cogl
##d53
##e46
3F
showlog
flavor
0x65
scrollbars
insertion
ECL
guy
##egl
##byte
accomplish
nis
xxxxx
##dd9
Recip
QListView
Rect
ted
##ney
##ffi
Geo
kstars
##cef
client3
decorator
Rawhide
##e6b
##lee
delimit
Importing
RefactoringWizard
##sf
##TeX
##sect
losing
Supported
##plist
##ERR
##d0b
stripped
ocf
##XN
##ONF
Strange
ttf
##a6b
South
##ce3
Servers
wal
##a9b
splitting
pygobject
died
draw2d
SOAP
STOR
QRect
709
THIS
742
writeback
956
drupal
##Loaded
RHE
Gnumeric
spontaneous
rebuilding
QEventDispatcher
##WizardPage
##51b
Bon
##c21
Darin
##los
##fa7
##dd2
webmaster
##ste
scanned
##ca3
webservices
##aptics
asap
pastebin
checkboxes
##ofday
jm
##B7
dhcpc
Catal
##OULD
LINUX
Wow
##Virtual
datetime
detecting
dur
initrc
gracefully
##a68
##aret
##98b
##3b3
##Signature
escaped
UPTO
##Heap
##var
##c09
SG
##x64
##e9c
essential
commenting
##fa2
##ba2
1m
##backend
sleeping
thorough
Reproduced
##reek
wanting
movement
libQt5Gui
UITest
##fetch
targeting
731
qmf
playbin
Ast
tl
passphrase
JIT
attrs
reinstalled
callers
remembered
Slov
segfaults
dbm
##dfc
##ictable
Eug
0xb67
rk
LIBXML2
iPhone
##52c
##Logger
curve
SR1
PUBL
Xlib
xtend
tux
chown
routed
##idesh
xyz
beta3
##Comment
##d41
Fonts
##Daemon
##Tip
##Finish
##30c
##d49
imageio
Scheduled
OPENS
948
mtr
##ACT
emitted
758
Static
##spam
Breeze
##be1
droolsjbpm
##pectives
Fun
##ivot
##58e
##79c
##e8b
Epiphany
mvn
fashion
fomit
##Ed
pop3
##a6f
##77e
xxxx
fade
009
##fbf
##CrashHandler
859
Galaxy
Give
##ed9
##anymede
gtest
1680
##INK
609
Persistence
libflashplayer
IST
##aud
1136
##12e
histor
##12c
ACK
LAST
uml2
##Login
Printer
EvalFrame
CIFS
JoinThread
kern
##8800
similarly
##14e
STD
negotiation
Spring
##med
1040
##letter
754
949
gest
ips
##YT
##dea
##3456789
##vZ
Opened
0x00000033
sax
HDMI
##pw
##asht
##avahi
##RepositoryManager
##M5
tomcat6
7f0
Taking
hacks
motherboard
minus
BOUNCE
Conflict
##e89
##x5
encourage
Os
##d66
w864
0x10000
travers
0A
##uggable
nasty
logcat
segments
##g1
##jar
##route
REF
vmId
rpmlint
746
##WINDOW
Hon
##aining
##Env
##utch
##ientific
cursors
##etaobject
CFME
remotely
bmo
##i8
comfortable
##emanager
libnm
Confirming
ADDRESS
e5
##Stand
##xxxxxxxxxxxxxxxxxxxxxxxxxxxxxxxx
##ADDR
freeipa
wrongly
sz
##eaker
##57b
sake
##det
Webs
773
##d01
##itto
licensing
699
992
##Zoom
BAR
##a44
##HIFT
Indigo
##keleton
##58f
Turk
acr
##night
ibus
769
CompletionProposalPopup
union
Sqlite
##Creation
nsec
618
##effen
1048
##af9
Thoughts
overt
versa
Pentium
##qq
universal
##lected
##Vs
diagnostics
##Invoke
rc5
##a64
qtbase
DEPREC
3g
Wil
##dad
fc9
ALPH
Continue
##cks
##pat
Xtend
internalDo
railties
##e4b
SlaveInterface
jan
007b
##df5
##9k
##lan
LTSS
Ltd
##f8b
nmcli
##19e
libcurl
aid
##ayload
##80f
specially
ndevos
868
818
nx
##ponds
##ComboBox
Bur
Thumbnail
##sth
independently
##a74
Requesting
lies
prove
deflate
##cb2
parenth
033
7000
0x63
##XJ
challen
mainwindow
F5
##alize
revers
##update
0x52
dese
##e03
cbi
##x480
urn
sep
Shortcut
##cd9
134217728
##80c
##sphere
OPENSHIFT
ocsp
erase
R14
##3b9
QUObject
##Migr
prem
prototypes
vagrant
##OPTS
##andra
##ac5
OID
##Batch
Notify
environ
##Evaluation
jwhois
gig
0x37
libavahi
##ac7
##prot
##ison
gthreadpool
##ZXJ
##itation
##17e
buttonDown
inet6
808
##d94
Applet
Hosts
833
escal
firewalld
0x7fff0
libav
dpt
##90f
periodic
##Pg
##posals
puzz
0x2f
Clearing
##x32
0x2c
websocket
996
##a24
##ce9
Unique
##b03
mp4
observation
##51f
##Limit
##Bm
log4j
Sr
kbd
##1824
957
perms
bounc
##7f7
R11
SIGAB
kie
PARAM
law
prep
safety
Rhythmbox
716
##LINE
##ILD
##modules
ParentRunner
##verified
webapps
NonNull
nsGlobal
##hc
iov
customized
0xb788c2
9c
##pdk
0x8e
certutil
##missing
ADDITIONAL
Axel
MIT
##de9
qqml
SOCK
##11f
##zech
outlined
ubp
subdirectory
kdegraphics
Mapping
##ce5
##11e
##itech
697
buildroot
879
547
virgo
##ardo
Ha
2400
namely
##integr
##ideshow
##10b
subscribed
untr
tack
##aec
##f02
##aeo
resend
backups
##max
KD
##lg
sta
analog
##cfc
##cb6
Mot
vtable
##vetic
##HH
##N1
##estination
Recent
ParameterizedCommand
##rokes
Telepathy
##Initializer
##etical
Hol
##dd5
##aille
scalable
ups
gmx
HotSpot
##14c
##mouse
##75c
##DateTime
##links
##4g
##rey
##letes
##55c
5d
787
Repl
scout
##Attach
##CString
##tere
indices
KMM
##Decoder
truncate
917
##edc
millisec
##repo
POP3
##f0c
decom
1086
##13c
##78f
##OutOf
##icket
writev
##9f3
barrier
GnomeVersion
v20060
623
C3
inactivity
Korean
R10
weaving
##Updater
corresponds
Yaniv
SIGABRT
craw
lkml
##ff1
defaultCrashHandler
snapper
##esource
##14f
##10f
##rans
##70c
mechanisms
##vr
##ef6
1053
##e0f
##aa2
flagged
permissive
WPA
drawWidget
##L0
libssl
unhandled
##31c
lsof
cer
##Video
##ibana
readme
rebased
AccessController
EFI
Reb
0000000000
Son
##M2
Boris
Xine
##dc5
smartcard
Embedded
Throwable
990
##ebc
CONTENT
tweaks
Force
853
##romaeo
keymap
##59e
SUPPORT
733
725
950
##c07
JDBC
##tpath
PREE
##proc
##aab
0xa3
simplest
679
decoding
Reporting
MSVC
alienWidget
792
##Mac
##hire
canceled
##eh
recons
806
ajp
PREEMPT
Simply
729
acme
##Iface
##cd3
Socorro
mic
##Before
glfs
irb
nfs3
##MetaData
azure
xsi
1076
##54c
defineClass
Bean
initiated
##3b2
Joh
##bugs
##18f
##99e
constructed
RDF
joy
Tor
wider
##Vol
mozbase
##vu
##95b
TextViewer
0x68
QPaint
QPixmap
lacks
R12
R13
stp
unpr
##20f
##39b
1009
framebuffer
cygwin
##aa1
timerSourcePrepare
##M1
##isa
occurrences
REQUEST
ALPHA
infer
##34c
##Applet
##DispatchAction
##arch64
wol
1005
0x00007ffff5
eyes
Triage
##onarc
y2logs
##vetica
practical
##declarative
##99c
##Slot
bir
##pts
##a38
##RS
##edule
Scrollable
##vik
delivery
fluentd
KE
##Structure
2600
##e4f
presume
##Q0
0x61
##ews
dataset
toc
coredump
cman
##XL
##ddc
krit
##PACE
##rc1
##74f
AFAICT
DispatchMessage
##a4b
##enny
mhonarc
shifted
##apphire
##riv
Share
Chipset
excel
surround
carrier
Scr
wired
##fb6
##7bb
771
##Attr
hovering
MemTotal
purple
informed
Bin
v6
##akcho
561
##Updates
##akchois
combobox
faure
2011h
##8876
creator
sgid
reassigned
Herrmann
##ad5
qv
##erner
##72e
enterLoop
hundreds
867
iu
##ee9
##emand
sat6
9e
##Maker
aspx
legit
##MAL
##eb2
##1b4
Kl
##70f
017
027
STABLE
##roject
faulty
decides
Crypt
PAGE
##d06
setups
continued
checksetup
783
KOrg
##types
recreated
Slot
##ography
dsh
xlarge
Fort
##Vds
##cha
testfile
Distributor
xlators
permanently
Steffen
DEVICES
tgz
heavily
ongoing
misunderstood
##7fe700
##76f
bon
bmp
SAP
##Injection
RHEVM
##5b6
##7b2
955
##rees
##fbb
VLC
##d89
observer
qmetaobject
dhcpcd
##tecode
collab
hdb
rdu2
##13e
avoiding
##wn
fy
RSI
Retrieving
R15
confident
kwrite
Nova
rolled
Nelson
netwerk
gettimeofday
Kale
ZIP
aarch64
##af1
jpt
ku
traditional
Sur
##d12
1079
apis
Volumes
0K
##ea5
fsuid
unlike
ostree
##QB
##d0f
##Sharp
575
##undles
##84e
0x9c
##IPSE
##Toolbar
w3m
##X2
##arms
##2b8
Endpoint
books
egid
commander
defin
esr
AA
##U2
0x555555
unfortunate
nsGlobalWindow
lately
nsBlock
##ferencing
##ce7
##SSION
ppid
wel
visited
pvt
569
##BuildJob
##0000000000
STREAM
##istically
##Diagram
##IID
##b0f
721
1138
##ca1
solver
##c9c
fraction
##EXT
##d07
##LaunchConfiguration
dromaeo
ThreadRunHelper
endpoints
##faf
buy
nativeWidget
##Activation
Owner
789
Wmissing
caption
jbossas
WWW
TI
1137
edges
globally
0ms
993
hardly
catching
885
h1
##icolor
6a
analyz
kms
paintScreen
TIMEOUT
##Ax
##elle
##monger
keybinding
QWidgetBackingStore
Florian
NN
##ed3
SelectionDispatchAction
overtaken
Akregator
Examples
door
lastmodified
subfolders
661
Declaration
Several
INTERNAL
Queued
##91f
Libre
942
Dro
##alth
UNAME
Lukas
##rp
##emacs
##cf9
##Overlap
899
pac
##oof
##c6f
KBug
Mime
##53e
##24e
##caf
910
##UV
labeled
JavaModelManager
reconsider
Folders
Interestingly
diagrams
mountpoint
##inh
##osa
Hen
##a22
##Suspend
Mylar
Accounts
##ca5
justification
QSignal
##Pan
defrag
##Checker
DPI
possibilities
##legs
##d3c
emu
##75e
Mick
##a94
Navigation
965
SPM
cro
##vh
##anie
##e49
##Prefix
lives
##90c
##17c
rfkill
##ITS
cpio
Returning
##Encoding
765
865
##af3
existent
##auer
favorite
##ernic
1383
##ONY
architectures
739
Types
0x73
##d62
fd4
connects
##dc3
PROGRAM
Mask
MethodRequestor
DOMWINDOW
Kexi
##ce1
occurrence
795
##d22
131072
784
##Pol
##d09
705
visually
##Abstract
##Timers
10738
##upports
AutoBuildJob
##1600
SCR
##ERS
KDirListerCache
Commits
pitivi
##tip
##archive
##cb9
##erf
##10c
##cf7
890
869
revdep
Bump
NAT
##50c
##3bb
##11c
##fa3
biggest
##TFS
DAT
CAST
kit
##QP
##VL
##Flow
##Y29
##aa6
##9b4
##logd
collapsed
cu
oop
└─
##orp
Invest
##R2
coord
VK
##management
jak
wishes
carbon
gsettings
##oader
iterations
715
ambiguous
##BF
NEG
979
Constr
dwh
##ITLE
sddm
##afc
565
Capture
Wi
RDI
##Sql
##rocess
##So
##tech
Integrated
gg
lint
arp
pkix
UITestApplication
819
disk0
ror41
##ami
el6cf
j2sdk
wildcard
##15e
AbstractReconciler
SHOULD
packstack
liby
##dcf
Serge
##a2b
##5bb
##Indexer
ldd
##ille
##af5
##addressbook
simultaneously
opal
##comm
Cookie
RCX
##jamin
##efe
represented
RBX
demonstrates
sj
eventFilter
##e09
##M3
##5b2
997
##iy
##79e
##clib
testV
nfs4
##Sm
mochi
sparse
691
689
799
Hierarchy
##elapsed
0x00000037
##ours
##30f
11364
##WORD
##DEON
LAN
ital
0x4f
RBP
##eron
##c83
dw
0x110
mirrored
injection
circle
966
wtf
spurious
##c43
RDX
Atin
ensures
675
##istrib
bluez
Santiago
INSE
##ba7
##Return
##39f
MSIE
producing
B2g
##74e
reloc
##ea9
RADEON
Translation
Amazon
##R0
##R1
patchset
621
kHz
Deleted
crl
Db
OOM
##5a7
##15c
libssh
##3f6
DROP
spreadsheet
##node
unverified
virtualbox
##Use
hands
Returns
##ab7
##ecomp
sdl
arena
udisks
##house
45svn
halt
nsHTMLReflow
7d
##d05
##Commit
DefWindowProc
##s2
##0008c0
markupview
671
emphas
889
memc
librsvg
gpu
Lar
d9
v8
##export
CE
evening
##AGER
##wv
1013
##pbm
##obbler
719
linc
Julian
dvb
blow
cup
camp
##LK
##illian
TOC
hawk
xfree
##ec5
##f05
798
##d32
##isy
##33f
Hibernate
##akon
nsThread
807
Glade
freetype2
fc30
nearing
Perf
Saturday
Analysis
Y2
1039
quay
##a29
insensitive
QSurface
Ekiga
KERNAL
##64c
##MError
##kbOverlap
Migrate
testVkbOverlap
dltk
##bridge
leaking
lastmodifiedby
##24c
##Program
##c23
Hostname
Gigabit
Makes
##ec7
1120
809
Arr
GSource
PST
JobManager
scrip
##5400
##35f
Depends
glyphs
gonna
##timer
ESTABL
vacation
h2
programmer
Flag
##d1f
provisioned
##ernicus
981
excellent
##ORDER
##a8b
7a
##ture
##idential
##2020
988
libgconf
##19c
digit
##cc7
0x5555
Physical
782
Italian
tomboy
1056
##db9
##a23
revoked
Cached
LIMIT
##vo
pixmaps
Modeline
I20070
Pop
mrg
##ddf
declined
YCP
membership
Zoom
TV
##Dg
dumpxml
Tobias
QByteArray
##JJ
##ormap
1366
scl1
greyed
##cc3
##EList
##31d51
KBugReport
7e
wat
##da9
traceroute
hicolor
ppa
##5b9
raising
ceval
retrying
PasswordAuthentication
975
drift
Gaia
Term
rpath
##lexus
construction
assumptions
v20070
##dfe
##arator
kdesktop
Arm
##ae9
ESR
Neil
##fa1
##eb3
Europe
##ThreadFactory
automate
##Accessible
unman
##C7
ModuleClassLoader
##Refactoring
551
frank
##ivation
##18e
auf
##97b
657
##annes
Php
753
##etypes
newv
Define
##cc1
##74c
790
##opernicus
udevd
kmail2
gpgcheck
kmod
##MX
DISTDIR
Restarting
972
JSS
##OTE
849
##rad
##unno
getAll
Redirect
Dirk
0x40f
systemid
##a78
NoS
##d59
##screensaver
0x7fff9
digging
toler
DSF
pal
graphicsview
LIC
##Fatal
1135
##d85
copr
rfc822
QImage
##mlib
0x00007ffff7
PKI
Similarly
##ventions
nsView
gk
fcntl
998
Broker
dpi
unpacked
xemacs
##Depend
VLAN
##ccc
Mor
##AZ
##aku
Clock
librt
##cbf
708
##cb3
906
##LIB
##Received
Matthew
0xb58
internalDoFilter
Testcase
inheritance
QSurfaceFormat
PP
##demux
##velope
18176
015
810
944
##ican
SUBJ
XMPP
847
F4
##G1
##ibling
R2
crop
938
UML2
princ
##ICATION
Sus
vda
##odelIndex
0x00000008079
nsIDOM
##77c
unmerge
967
Xft
Cover
ReferenceError
N201
##wb
concerning
627
788
##ef9
QModelIndex
##0153
##cbd
gears
brackets
013
##agic
##ulture
##60f
Adapt
##asp
iPod
preserving
778
##cmd
horr
createAndRunUI
maildir
vbellur
0x53
getf
##92d
##Album
##ernand
cpuinfo
##cf3
cms
CLOEXEC
##20e
##a07
ocs
##KK
1350
prepend
##6b8
cfg80211
##2008
Kim
certmonger
##d2f
Linked
Fault
FQDN
Bcel
Duration
##pk
Yum
##Bool
0x58
objections
##Computer
##35c
windows7
##Repo
intell
sda3
steal
aspell
7D
##b05
##e8c
msg00
0x9e
Ro
evo
ffffffff812
becoming
##flush
811
##Cho
##39c
counting
##igikam
##codec
##0111
##Images
SNMP
Cursor
##U4
zanata
##a0000
##bag
##Dr
##c45
strcpy
VIRT
##GM
0x00007f2b
##40f
lockup
migrations
gtype
Infin
##5bf
##iform
dhcp35
Gnucash
DEPRECATED
Ray
andre
##Sty
##e6c
transferred
##Dict
executeWith
HttpClient
ECLIPSE
##like
stability
MIRR
Editors
##Disposed
AUTO
funcs
##EditorPart
HEADER
Creative
aggregate
briefly
Mickael
830
##n2
1226
##D7
##ee3
##d45
gdke
##econnect
920
AIX
d5
##5f2
fsgid
rsvg
0x78
uncondition
awaiting
##YZ
##ampuri
aggregation
Karampuri
NTFS
##d55
##poch
analyzer
##WE
CoreException
##Scan
anti
collectd
1407
multipart
undertow
##etad
niet
Critical
nsISupports
integrity
##mitry
##References
1352
SEG
nore
##unit
##ATOR
admins
networkmanager
0x00000000006
reviewer
##e41
v4l2
guidance
717
895
1225
getResource
animations
autotools
##Home
##c8c
TypeDeclaration
Personal
KURL
Authority
testcases
##urd
getType
Scanning
misunderstanding
A4
tee
Contribution
lastMouse
803
collisions
kk
##c2c
kbuildsycoca
##istian
crw
##labs
DMError
loopback
Freder
yp
amqp
playlists
658
kud
Profiles
powerpc
##iao
##ebf
##93e
publisher
disallow
##pres
eth2
proposing
MarionetteException
##a34
partitioning
##Groups
pgs
##eb5
absence
realloc
Filtered
##Zone
printk
##anoia
Skip
780
##BACK
workload
ipod
Mu
##Locale
##idy
Activate
##f89
##ippable
##c49
##Geometry
William
887
QSize
ho
##88c
securitylevel
Twitter
##ycoca4
##Identifier
lastMouseReceiver
rc6
Olivier
i7
spect
##elli
021
##ModelManager
ensuring
CAPS
Considering
KDialog
##rog
PAR
temperature
797
AUD
##UME
node2
initializer
Links
mozprocess
Photo
constructors
ManagedThreadFactory
##ac13
##c47
##c1f
1840
pidgin
##ff5
##d11
##a2f
TOP
2097
##5f6
##d5c
##Forms
ceilometer
##a14
##d76
##ayed
##86f
##worker
annotated
1088
##Publish
1h
##UDE
versioning
0x420
perspectives
lockd
pciutils
softoken
decorations
##bi
mutt
##Navigator
UK
gun
##b0c
reasoning
dalvik
nits
SysV
Housekeeping
Cross
##essional
cnv
accumulator
inclined
932
FULL
partly
semi
casc
Structure
##ae2
fc7
AttributeError
r0
tcl
##wY
##ERGE
dragged
Flow
1025
openmp
Kaz
##kernel
##86e
2147483648
##c4f
crashreporter
DefaultQu
SR2
Buck
Meanwhile
VIS
##tn
StandardContext
##ineffects
##ovy
uploads
sensors
Ae
##d29
Implementation
LookupEnvironment
dpdk
##35e
DefaultQuartzScheduler
e7
gmp
Polish
Manufacturer
TaskManager
qlist
##33e
pressure
individually
prerelease
cir
ldb
##amil
##dd3
fd431d51
##VV
647
##retch
kcmshell
##XF
749
QUrl
0x4dc84
pics
station
##earance
rotated
Her
##d0000
##d42
pyp
##ourceview
0x089
dfs
DOS
##onian
accesses
##86c
1083
##53c
##df7
EditorReference
attacks
Werror
0x40e
recursion
4th
##Pj
1033
##grabber
##e9e
EXT3
reducing
##SearchEngine
0x00c
1034
QGuiApplication
##iring
##lx
##4u
libpl
##ee1
905
##finished
reorg
Spacewalk
limiting
KParts
##1107
##OSS
hardd
Li
SLE12
883
##Bridge
##HB
##spread
##versive
operational
measurement
jdi
qglobal
##peed
LOAD
##6037
##aed
##8x0
served
##71e
querying
Galileo
DONE
##daf
Excel
AJDT
michael
##lav
813
M8
NUM
john
AssertionError
##FSET
preferably
936
GENT
Avoid
surprise
##obuild
##6b4
##oster
##erty
SerialNumber
wmi
STORAGE
DA
##RF
##vY
##33c
Cocoa
##a3f
##dd7
1112
implic
##c0f
Administrator
qf
rimage
tu
##ObjectEvent
Ze
vnd
##eb9
##7b9
coordinate
903
JGit
0x51
URLClassLoader
##f6f
##iteral
id3
PackageExplorer
Marker
Slackware
GENTOO
gphoto2
vertically
Marco
e1000e
##Queued
##ba5
hayes
##da5
lvmetad
RESTART
##roK
##c0c
##a49
##d6c
qabstractitem
1085
##88e
##cd1
martin
kra
abi
##folder
COMPRESS
sud
1348
##sey
##fa5
ful
##prof
##eduling
EPackage
20190
OpenJDK
0x00002ad
Draft
Kst
##Simple
earth
HOSTNAME
OOo
Assist
myspell
##c1c
##prefs
837
thr
SHELL
pentium
inverted
##ilst
0xa5
##d0c
terminfo
ESTABLISHED
##Through
##7bf
909
jw
##d9f
##qs
##ef5
##eer
##dd1
##d83
##d8f
0x415
GClosure
##perse
executeCommand
SHA384
vend
backtraces
PRE
##57e
COMPIL
LF
##edish
initiate
libXres
Jean
buildID
BuildRequires
0004
##EFI
GType
QtPrivate
principle
ECC
##QE
Plain
##d69
runIn
containment
##times
Transform
OVERLAY
##m4
urllib
Petr
Pretty
implicitly
##ationale
ttyUS
##Invoker
SSS
AWT
polish
vdsmd
##d77
v20150
Cu
##ef1
aug
##plot
##0104
ResourceSetImpl
687
gtkrc
adb
##mitter
Foreman
##31e
1015
Brand
ISP
Win98
jk
doable
##18c
##cbc
realtime
compromise
Clearlooks
1036
ade
##a54
##c8f
2G
933
brick3
noticeable
SASL
##atin
Albert
AG
Osc
##cred
dumb
##c41
##Sw
idm
x11EventSourceDispatch
##f06
bread
##qb
##conds
LiveCD
EClass
0x80f
DateTime
Computing
Instrument
clamav
rhnsd
lvc
torrent
##bb8
numerous
937
##pressed
midi
Aux
Mine
beans
Retry
Article
RHVH
bullet
P4
interceptors
##7b3
kpilot
hppa
##ewise
repeating
styling
##freetype
649
##ukherjee
Revert
wins
##d26
1055
##uma
Builds
##e1f
##onsai
tcsh
Mukherjee
vv
x0
##ftests
##6700
Domin
##dde3
##0009
Seen
ENUM
libmozjs
KHz
##osk
##phere
rein
##b07
##Embed
##elled
Disconnect
Facet
Xkb
##Diff
3500
0x807
digits
##22f
UISynchronizer
Dirty
wf
Checker
qelapsed
##ventory
##enuine
qelapsedtimer
##andid
macOS
Production
##EEE
lcms
DRIVER
##BR
happily
facility
subclasses
##Gx
##emark
gitroot
##json
##WJ
libat
Marcus
##84c
struts
025
reporters
roller
##kex
##encast
gok
##OY
##convert
##task
0x39
875
HDD
##ea7
rapid
Ir
v20090
METHOD
##plane
##arcy
735
##ecache
aband
##Chrome
1046
getImage
##be7
icq
North
tn
##uffers
chris
##Ant
##ductor
SysFS
FX
med
##angling
##inda
importance
751
touching
PreferenceDialog
kaffeine
##d46
##umns
involving
fc29
rax
0xb65
607
Editing
scopes
##ito
##40e
synchronous
##Safe
clocks
Tainted
jss
##dp
##20c
CORE
##f03
##c85
Zone
iscs
experiments
##TCO
INSERT
gold
##abios
##ICK
geary
##urtis
Profiling
Pin
##60c
subpackage
##57c
##9b2
Dual
##unes
##c25
MP3
vvv
##de5
##Validation
Mong
unfinished
Repeat
0x000000000042
wordpress
##TV
PROP
lex
##ed5
credit
backspace
##FactoryImpl
SANE
##Symbol
eager
##Len
##enus
##tpd
webdav
Ark
kex
openshift3
CR3
##Namespace
0xb788c252
QVT
dpkg
distinction
fundamental
shippable
0x7fffe
skew
libini
##oread
##71c
0x00002ac
MRG
QFrame
SSE
##Word
##igest
classloader
WorkspaceModify
##Removed
titlebar
##translated
arj
quartz
##USH
xend
##Maven
##rock
##artment
##cb5
1066
##dpi
getValue
743
841
executes
CDROM
dropbox
MPL
peek
##Category
##walk
curr
##kZ
##uto
##athi
##e2c
Operations
##56958
##ODE
##rout
jbos
##Reporter
versus
##Setting
podman
GstPad
expiration
##size
##d93
685
NX
##itles
doPrivileged
textbox
Andy
subtle
##Ly
##1536
salt
943
##nN
MULTIP
hides
##ancing
##ppl
setAttribute
grouped
benefits
##breakpad
Gio
dd3
##Clk
##a52
1220
Oscar
Temp
##aign
##72c
##98e
joined
notifyInternal2
FSpot
jet
exiv2
DEST
1224
##eb1
Sean
##protocol
##Tm
##fb2
0xb63
Won
cloning
resumed
peter
##ura
cls
pkgs
Correction
replicated
##Success
##helper
##e0493b
##dc7
##ribly
##iphers
4ae0493b
20111
##Req
##a21
bk
activateTimers
sequences
##ignment
r10
##tras
BugZ
ORIG
##adays
##CTL
instantly
GridData
##M7
reveal
MAKEOPTS
Var
##ed1
1394
##Pixbuf
##YN
Methods
kindly
guestfs
0x0000000000000001
930
Api
jr
##ba9
concepts
Kh
Improve
##1214
1008
##aa7
decent
balsa
unint
lvcreate
Fails
Alias
parents
selectionChanged
Preparing
##CastException
##aee
0x75
##d92
##37c
indirectly
##OutOfBounds
Random
datac
Contacts
##eta2
xc
##Annotations
Templates
##ierre
##ferenced
publican
ffffffff802
m2m
für
##8888
phrase
libfontconfig
0x69
##auncher
##AdminImpl
851
Ted
##imo
figures
640x480
##d3f
##Au
##odo
qtimer
remoteautomation
QAbstractItemView
##9f7f
826
mistakes
colon
##c05
Arts
##d15
figuring
Concurrent
Tpo
milliseconds
insmod
lands
918
magna0
unloaded
1094
Modeling
NUMA
ellips
theor
##rod
getText
replied
Offset
##amobile
System32
reboots
additionally
Acceleo
win7
lucene
0x81b
adj
##22b
##38c
##StateException
913
UEFI
replay
packed
##ictor
GDBus
Aeolus
Username
Approx
descriptive
fu
mimage
image1
723
damage
PUBLIC
##actored
sitting
prevented
##Aspect
backports
rolling
quirk
##da7
Writer
zer
meter
0xb56
logins
Selecting
udi
kjs
rhgs
##cd7
privilege
recompiled
hole
##igita
unnamed
##avan
##ea1
AMO
Bookmark
##Closed
census
##mgmt
##unct
##crumb
##61e
nsEventStatus
Curtis
##method
issuer
Mountain
871
Jens
bugspam
expanding
twisted
##af7
publicly
ldif
##ori
898
0068
autod
ContextInjection
##Leak
##40c
Matej
ttyS0
BT
zend
026
##c4c
REPL
##5f3
archlinux
##Association
Row
gegl
openais
2200
delays
glibmm
##Register
EMI
##Packet
926
4x
##95f
##3bf
kdeconnect
cxa
tftp
##uos
sles
sax2
Czech
##aa3
mtrr
dpy
collecting
2B
Num
ip6table
KService
hl
zomb
0x0f
unwanted
BD
Int32
ajc
summarize
XPI
##d700
##asic
##ba1
interrupted
##Api
##ultimedia
##a26
envp
1222
961
iTCO
groupinstall
amaroK
gaiamobile
netlink
##f0f
##a66
R09
mq
ol
##iable
White
kills
powersave
sendKeyEvent
AMD64
Xeon
##atest
expat
QObjectPrivate
651
794
XEvent
esd
3260
safer
##f4j
ESP
##Bugs
##000000000
underline
Packet
vn
##Ids
egl
inodes
##c7c
Accel
overlook
blogs
kdesdk
##Done
##fn
j2sdk1
##sy
managedbuilder
##users
##mless
##98c
##OLS
##USTER
Pi
bank
741
complaints
Monitoring
Requirements
##World
reclaim
Chromium
snaps
libdigikam
DMI
##cea8
##ularity
Digital
acceleration
SyntaxError
ancest
tps
##GTK
##ales
##5f9
Views
Sad
truly
##PAST
AES256
##d73
##Vi
strigi
Delivery
R08
##00001
##de7
0D
##9f6
normalize
##d1c
1060
##96c2
QtGui
rc13
meg
PartPane
cass
##EEK
##ScannerImpl
##straction
##Proposals
##a2c
Ignoring
Malay
charts
Nat
Parsing
0x09
##bek
LAR
Checks
libdr
testuser
##Touch
Alan
Append
VirtualBox
NORMAL
##db5
Philip
863
##98f
0x0809
##Vl
corp
FAIL2
Lang
Zh
int80
##chest
alternatively
libopal
etools
hc
indexOf
Vert
##2700
823
mce
IProject
##aad
precision
MIRRORS
Url
##econf
##37e
GTK2
Eugene
##Ign
konq
VF
##ainz
##MethodAccessor
scriplet
Ask
gyp
Ale
Advis
bumped
CR4
aster
034
##a7f
1062
Refer
datazilla
##5f1
ATAPI
KO
Role
##ÿÿ
deals
##valds
##aze
Rendered
NB
redef
Tempor
w7
1019
##Debugger
##m1
##QT
##hp
##msetup
hornet
##emeral
##a11
##Cd
clickable
##wMDA
##PressEvent
HR
ktp
exploited
quanta
1GB
861
##atile
0x0000002a
##5b3
announcement
KOrganizer
Oomph
mute
00g
##90e
readers
contacted
ISO8859
POWER
oda
##Yg
##w2
imho
##webkit
decrease
1130
##Conf
glassfish
0a2
665
NI
Xmx
flake
##a5c
introduction
757
##a16
hostnet0
Loader
kioslave
##Iz
##lus
0xb5a
tyan
##ray
##erve
0xb59
installable
packagekit
##ActionHandler
##LS0t
Reports
SLED
##atun
GeneratedMethodAccessor
radius
tpm
##70e
##62b
##c87
LICENSE
CACHE
DST
ML
zen
##a82
userdata
Leave
##solute
gnode
##akash
Regular
EclipseTestRunner
fsync
##Retrie
727
fuzz
##iang
clamp
##Download
##M0
##ima
Stephen
##Equals
##d56
urlgrabber
##h1
##9b6
##XXXXXXXX
014
ble
##Axis
insights
##d9c
0x000000000041
##w0
libres
##emantic
gog
1110
LM
##tx
##d52
0x71
Justin
16777215
1078
##dos
##dbe
findings
0x120
##ba3
ksm
Providers
kiwi
##db7
infos
d7
##omu
##Enum
##fae
##wweb
##cb1
isolate
clvm
805
retarget
recorder
##inerama
brewweb
##ResourceManager
881
LOWER
vol1
##robat
##a55
subordinate
##12132
frustrating
1211
##Fields
##dbff
subvolume
0x00000031
presents
reloading
vfat
##d36
15G
Constants
fancy
1042
prerequis
meson
collabora
20h
fipscheck
100000
##sam
##onymous
vptr
libcl
exposing
##Commands
flexibility
Picture
ya
##2D
succ
netmask
Hunk
Filters
harmless
flows
814
Except
##Collector
lgcc
M9
##olt
##ee5
RHGS
libgnomeprint
##fficial
Kde
##STER
licensed
ccs
SSD
Django
1101
Trunk
autoconfig
##c1b5
##6400
tuple
##e07
##UJ
Partner
##bytes
##iveness
acquired
xmpp
QML
prone
thinkpad
fsid
##c5c
Generally
##Modified
Benjamin
##93f
gcal
##Zl
libapr
##WorkingCopy
Dmitry
ras
##exp
1px
##ech
alarms
goog
burning
instrumentation
Baloo
fqdn
PLAY
Dam
AVAIL
##PX
##anz
##urally
##ca7
Vector
##96a8
arches
krusader
mkfs
EXPORT
colours
4k
##Fun
##cf5
interceptor
testBookmark
Generator
ultimately
Affected
Mirror
##4m
NTP
umask
##Structured
##QAA
##iti
editparts
achieved
##9u
##Prot
##LEY
advised
779
Na
V3
Unset
##essageBox
unreadable
##ontoon
##ee7
##58c
##d2c
##3f9
##d39
datadir
Business
##a92
0x00007fcc
##pms
QXcbConnection
##support
##Multiple
##Branch
leap
crasht
##d87
SLE11
hsync
substant
discarded
hornetq
Toggle
0x8879
observations
##Overlay
didnt
##f6e
apb
streaming
##t0
##Role
ToolBar
etta
arrange
0x818
RECEI
DTP
Pg
##DEX
Simias
Ports
Kaleb
##OutOfBoundsException
ihint
##wc
redistrib
dots
JIPP
libpc
0x401d5
appoint
fear
ClassCastException
LARGE
032
##stripe
##OfWork
InputStream
Zsh
xf
##RGB
##tracker
##a43
1029
AbstractInformationControl
encoder
killall
##xlarge
##VO
BRMS
##OpenGL
closest
##0123456789
939
sheets
##36b6
REMO
##7b5
mpfr
946106
passth
kibana
sole
CONST
vid
IMPORT
0xc4
##cd5
delib
##NN
##stab
##5f7
Finalizer
Dup
Attr
translatable
##Tester
Life
diagnostic
Items
py2
##Compare
EMISSION
traits
enfor
hdr
##dG
4p6
implications
V1
##jan
##97e
continuation
TransferJob
##request
timeframe
##recognized
exerc
##e47
mozrunner
IOError
spinner
Say
##ige
ORG
bnx2
rust
##Design
reviewers
##ENCE
chan
##Obser
1280x
CLOSE
##mn
##erson
nsIF
Rev5
Nicol
compilers
plural
Braz
##a1f
Gfx
##lor
0xb55
LSB
yyy
##d82
expectations
gdkevents
ContextInjectionFactory
0B
HDA
devsel
redis
Debuginfo
GIF
clflush
##c1e
EMP
drkon
Jes
Painter
rygel
##a72
##a42
kmem
Cairo
##2500
##9bb
Rectangle
serialization
rdoc
Peer
kudzu
##a0f
0x2e
1017
##e1c
kdemultimedia
987
qstring
Upgrading
Body
noisy
##chooser
##7bc
EndSection
##erneath
##days
inhib
listinfo
##beit
WaitFor
Fabian
C0
##Bound
bear
msr
ffi
kbuildsycoca4
681
Lo
xpm
##sn
##yped
setActive
##dce
passive
mozmill
recommendations
BORDER
JNI
thx
decisions
gtkcontainer
037
edition
##zip2
##CreateGui
learned
##outing
KCModule
0x00007f90
HIDDEN
897
Break
EHCI
relates
##ImageBuilder
##aniel
##aaaaaaaaaaaaaaaa
##ridges
Logger
##shaller
TEMP
32x32
statusbar
Places
0x8879c58
Kash
##fw
##zer
evil
influence
8139
retired
brid
1073812132
##deploy
##Perspective
Warn
##aaf
libical
safeCreateGui
Suggestions
##glue
0x401d540b
setBounds
##aintext
##Manifest
##000001
##OTO
##e7c
##a5b
##bb4
##WW
20th
##avia
##Outline
pairs
##a86
replying
Approximately
BS
Whatever
volfile
##ae1
##olding
ENTER
0xb54
GdkPixbuf
##Exit
##DataSource
libudev
##d13
consolid
##1bb
cdi
embedding
0x00000035
Bi
buildbotcustom
XSS
MC
1150
Alloc
Bog
Fc
plexus
645
stackoverflow
tuning
responded
##fb3
0x00000002
##Updated
Differential
c03
##plex
##e4c
JBP
chron
Discovery
cac
1236
newsgroups
##Q2
dovec
##1400
##AccessorImpl
##f7c
dogtag
driven
##69b
slf4j
Reconc
r8169
guil
1072
##c4e77
##Tabs
ephemeral
Laptop
##Ns
vsync
TripleO
libo
WorkbenchPart
mirroring
DVI
##Machine
##Expand
Laurent
1043
unnecessarily
Die
fort
##imb
##9660
newsletter
##1l
classification
classpathentry
785
DK
##nish
##Eg
##ac09
qtdeclarative
##Ut
##etest
KEITH
mse
##Highlight
##rowsing
##Checked
PKGDIR
Investig
817
##m3
sucks
Beta1
getElementById
F7
qr
##formats
intel8x0
1045
1998
##f8c
HandlerService
unmanaged
mpc
##x1200
##91c
0x170
##Destroy
Tp
##eres
##a0c
KWord
Certification
DISK
##ca9c4e77
##ac13dde3
##56958ca9c4e77
dd356958ca9c4e77
##9f7fac13dde3
dd356958ca9c4e779f7fac13dde3
dd356958ca9c4e779f7fac13dde3c1b5
libffi
0x00007f70
JBPAPP
hab
ont
Happens
osp
serving
XCB
##c3c
##d7c
Introdu
##REFIX
##igu
##81b
wacom
##a76
##fi
0x4e
##3770
##RC1
deprecation
conj
##OpenSSL
nomin
datap
##Keeping
reconfigure
##3f2
##draw
919
##Revision
folding
##yrill
Obso
sides
##Dirty
resuming
Sequence
terr
city
##ae3
bugbot
talks
##ataserver
##rieb
regenerate
esb
vdb
##email
Highlight
Matched
##accessible
##SUFF
Bastien
1172
0x083
Artifact
inconvenience
Mart
OTO
PIC
paul
829
Definition
3E
tur
talkback
Position
1089
##inkle
changesets
yy
##heets
##Vk
HIGH
KEITHLEY
underneath
powered
##joy
##ILITY
##appropri
##duchain
0x00007f52
libcom
beside
##w3
##hler
ages
mission
QPaintDevice
HASH
##uplist
##parent
0x7fff6
TreeItem
gda
##b038
createPartControl
##ateway
##usive
coyote
##Ix
buildinfo
##Compar
pcp
##d5a
##Mime
usefull
Delegate
0x00007f55
##cf1
pnq
dovecot
##pod
parm
0x00007eff
w3c
Soft
##dced
blockers
EXTEN
fdisk
dhcp37
##attach
massive
pdt
audioc
dereferencing
##f09
datal
basename
Dutch
Pal
spoken
voor
stg
spare
##ennis
Overall
##0c
##anna
pig
##0008
##95f9
previews
IllegalStateException
##anks
##38e
CPPAST
##TreeModel
Vl
##a12
##hj
0x5f
sts
##quire
##Imap
sendThrough
Visit
Frederic
Vadim
unh
unblock
primitive
lat0
menuitem
IDENT
##liest
1108
0xffffe430
F6
##d33
1252
##81f
##7b1
authority
WL
vdo
##9f2
##incent
offering
##yMoney
##RH
##51c
libdrm
##seconds
Errata
r12
qt2
##resource
##d8e
Vds
##68b
##cb7
wipe
arsd
##e05
##e45
0x00002ab
wo
ImportError
##MOUS
##Management
isDisposed
##c4e
PKIX
##When
wko
0x819
##7b54
Dashboard
arsdigita
##close
##ignore
031
FORMAT
kaddressbook
probing
##c2e
purely
uplift
swamp
##Img
EvalCode
cpuspeed
gsd
##zine
disperse
texts
##e85
##f43
bzr
wkocher
##copy
reduces
oder
brk
##avenger
Teaming
executeWithChecks
RR
Rate
##Powers
##3bc
##61f
##ENS
originator
##1440
Multimedia
KLib
Tutorial
bld
##fb7
##fe7
Lenovo
xscreensaver
##RPC
##qK
##aket
Horiz
##50e
distr
##nD
##Aware
Firewall
0x00002aaab
cheat
fixup
refuses
##e0e
dentry
noch
Issues
pdom
jquery
misbe
navigating
##LC
Json
XMI
PLUGINS
##sk
##V4
statically
lookups
0x140
##nJ
feat
reloaded
WD
1122
##MenuItem
drkonqi
FETCH
gent
##d16
libusb
noticing
Jak
##gener
social
JD
epoch
kke
##aef
acknowledge
##z6
##etz
libfreetype
##5b1
Pictures
fv
##Holder
Inno
pyOpenSSL
##resolved
##a45
margins
Somehow
Sleep
##cursor
##Addr
##ProxyModel
libelf
##cc5
##ELEASE
##e0c
bitrot
latin1
acroread
Pot
misses
##ae7
##c27
Controls
Publishing
qaction
accesskey
##f4b
##num
computation
overlapping
2GB
1218
##dae
tabbed
Designer
Josh
##document
examine
##d99
##activ
##edium
destructor
##95c
##6784
##d2e
dropins
PluginAction
Exactly
tif
reaction
##a25
Ger
RESOUR
##XXX
adapted
libclient
##ientation
weblogic
SunOS
libedataserver
clvmd
cobbler
##V3
##MG
noop
nexus
rwt
##Processing
L3
mems
##LX
##e5c
lowercase
berk
##eses
supers
##3f64
##FFER
Landed
qmenu
braille
Easy
RHOS
Geary
Kurt
TOT
xfer
##xv
##ubula
##3650
colormap
Wan
0x59
Idle
growing
plasmoids
sde
1028
1142
##a8f
Appearance
xls
##Card
distance
hav
spaw
ASTConverter
Beta2
CR0
GridLayout
baz
rede
mins
##UNIX
##fe9
Teh
Opteron
PROGRESS
##utika
##Qp
knotify
##cfe
Parallel
ffffffff814
extracting
motion
##r1
##bbb
##d5c4
superclass
##ConstructorAccessorImpl
##omuks
callWindowProc
Shutting
##d7f
##QY
primarily
incubator
wrapsyscall
webcam
1004
##Unknown
##eb7
##legant
Hour
ruler
##9f9
lp1
##ku
mgr
PNP0
fc8
##a4e
707
Kden
##1120
QThreadPool
hugepages
dog
REE
##yrillic
Kile
Vul
sysvinit
animated
##x1050
##utov
AGENT
PAUSED
##float
absent
SERIAL
929
##ivedesign
lacking
irqb
F8
qvt
##Ny
##se3
##f87
0x7fff2
##x48
reftests
seabios
iwlagn
NPS
##Ft
1114
1006
responsivedesign
##ICAgICAgICAgICAg
grayed
dts
treeview
Anyways
SWTException
##f2c
improves
##ONYMOUS
terminating
stereotype
##ares
0x7fffc
gtkmarshalers
SERVICE
##TI
gnopernicus
creat
Authorization
imgur
##NTRANT
TITLE
moon
WorkbenchAdvisor
##9f7
mate
rock
##c5e
REQUIR
##Rewrite
1038
##39e
ICON
enclosing
951
Hz
##label
commonly
mozill
codem
1117
Krutika
Hung
utc
setattr
painful
##oskutov
9000
##Grow
anytime
relax
consists
##utral
grp
Beaker
ped
00001
FilterChain
##LDAP
##imap
##f8e
QThreadData
BugZappers
##ClassDef
EXT4
REENTRANT
Apart
V4
##las
hald
##d19
0x817
##x8
surefire
##ICIENT
Scientific
Pref
##br0
Suggested
libexpat
##Mar
##urse
rpmnew
##egot
1969
user1
##bae
831
FLAG
mpi
##m9
offsets
muon
kalarm
OTOH
InnoDB
tear
##LATE
##95e
RECEIVED
##Arguments
##a96
##VF
complained
Ice
Made
##a7c
setter
mozaws
improper
##f384
Regardless
Mob
##s4
##params
discour
TARGETS
serialize
SHOW
coop
##packages
LANGU
##avengerThread
w64
##wizard
##PU
getS
100755
##26b
mozre
synch
psd
MASTER
##a77
##cv
##Any
FN
##ethi
OpenSuse
msg000
Incorrect
Greek
ROLE
##dfa
##alt
##0106
##Standard
##ITOR
ANONYMOUS
dated
##ei
desire
sdc1
CARDS
kkeith
##self
0x130
validating
differentiate
rtsp
uninitialised
1210
##rn
libks
##3b5
CDs
##widgets
stabilize
Green
1216
dbbroker
##aa5
##lists
REDIR
gallery
Expect
Spot
##oombag
SpamAss
##L3
0xf6
1354
abstime
mars
##rev
wasBusy
Swedish
##oombagoombag
##d5e
##e6e
Joel
NMI
picks
##d21
selectable
din
CloudForms
##sK
##AML
Virus
##amel
0x00007f28
INSUFF
Detailed
hun
##km
reaches
##Phase
Ken
##a89
##5f5
TCMalloc
cfont
0x00002b0
Kdenlive
rationale
##non
1057
##3400
Depending
libuuid
Capsule
jbossweb
subfolder
Pressing
voice
Destination
Mic
repaint
mingw32
SysVinit
Wik
tight
##1b5
onerror
pkinit
grouplist
1014
shots
INSUFFICIENT
HARD
##Bh
kded4
untrusted
NoSuch
##0110
##fb1
8G
##Html
clears
duplex
SpamAssassin
##YK
##imated
waited
accelerator
qlen
ine
positioning
Strict
afaik
Felix
neb
DEN
##91e
Msg
rank
COMPAT
ordinary
793
rub
##d79
thru
##Slave
1215
##Operations
##ston
##ommu
5242
ole
##ubmit
kkeithle
gaz
NoClassDef
Pavel
composition
Marked
dlg
stayed
Ralf
##tested
##ChangeOperation
ICE
XKB
Prob
watcher
backporting
deactivated
##HZ
##chart
Toolkit
dfsg
1174
0x00007ffff0
awkward
##TypeReference
dz
##1104
iproute
##eeting
tiki
x2d
##fbc
centered
##iversity
D3hot
campaign
dmx
Character
unconditionally
getService
EclipseLazy
msi
VERFIL
1126
modifies
##The
A2
SCRIPT
PageHeap
DIRS
r11
##noon
Simpl
krdc
##URATION
##f8f
##ae5
slowpath
cube
##arta
slideshow
##2984
EclipseLazyStarter
##TON
##0171
Launching
harsh
asynchronously
##I8
1099
##tran
##a56
##zZ
0x00007f24
##3250
deployer
Ran
phot
CRC
##RL
##Ao
0x00007fa6
49152
##f49
Utils
AuditLog
kar
##TLS
##logs
EXCEPT
Interpreter
##machine
##RV
1311
virDomain
Ess
Unc
les
##atly
1021
##sson
flatpak
mas
##points
bubble
NoClassDefFound
Sym
##yt
stacktraces
horrible
Ever
##DEF
patience
947
bounce
Privacy
Dennis
20091
optimizations
Discuss
Icons
Loskutov
lX
##star
versioned
registr
XMLDocument
layman
HOWTO
##pens
GeckoApp
opinions
mir
##UK
##uno
sigh
Associ
##dca
0x00007fd2
nowadays
827
##´t
##weather
focuss
040
Wpointer
##othread
971
##8400
Julien
deltas
Coyote
##jpeg
##3b7
##────────────────
Vulner
6000
##FACE
suffice
Seam
hardened
ancient
##ysfs
poster
keepal
##Aj
##owd
##0128
##Shot
enumeration
algo
##Usage
##NL
pret
##97c
variety
challenge
##Jq
##5bc
1404
7B
Accessible
dealt
endless
codecs
Instantbird
survey
##P1
##ificates
Unt
##ror
##Qpa
##ariant
##integrator
memcached
FT
jgroups
##hop
chap
0x00007f12
##ergy
##True
raises
widely
resets
Imported
Protect
##a7b
##z0
##WindowSystemInterface
3dn
KG
##owled
tele
ipsec
mnemonic
##yard
##ipt
xh
##fb5
Southern
0x80e
mongo
##Ip
##RAN
executables
Star
Andr
##CPU
instantiated
waitForAvailableJob
##c9e
assertions
autotest
PF
disrupt
lsmod
##GO
intra
##recated
##1b2
Remov
##a512
fastpath
##Contain
libpang
vague
Ist
##4K
##Zilla
##igen
logind
##dyas
valdyas
##graphic
SSSD
refactored
##angel
goals
0x416
EXP
LU
QFile
userprefs
##ositing
##design
gsp
ze
connectors
##www
ExtendedLog
qi
agpg
##f83
1154
##5200
Logitech
yields
##aptops
Much
0x79
##10e
nol
##QK
artsd
Scanner
Saved
Dummy
##a36
##a73
##tput
0x820
Distributed
Nir
pcl
sizing
cupsd
AAAAAAAAAAAAAAAAAAAAAAAAAAAAAAAAA
##a27
##TestSuite
CRY
rhevh
##a15
##Iu
##3200
##unately
##48b
bonsai
agpgart
##Double
relay
##kin
##ermany
##lime
##elayout
multicast
nepomuks
##aro
1129
##6ae4
excluding
multilib
1115
Flat
KCM
screencast
891
SIGNED
FINISH
##gc
##kde
transitions
##66f
diagnose
##RJ
##Enter
unsuccess
ico
##avin
##9f1
##1d34
exhibit
overwriting
##anit
shader
I20080
EventHandlerTracker
J2SE
##Chooser
ARR
##XcbQpa
sab
##andium
popped
hbac
xchat
##issions
ENG
ModemManager
Stere
vesa
libQt5XcbQpa
pgp
QWindowSystemInterface
lens
##reet
deleteChildren
cciss
money
avatar
2560
##irks
##otho
french
nsplugin
##devil
##handling
##Override
Optim
overkill
##Example
##LineEdit
65535
untranslated
webserver
##berry
MAL
apprunner
##Cluster
EXIST
IEEE
##anguages
declaring
uncomment
qdbusintegrator
Bzip2
untested
0x088
disk1
Defer
##Wl
##WZ
##ocado
tarballs
##f2f
bracket
Enhance
##gettext
libgnomebreakpad
automationutils
uninstalling
PROXY
nosuid
##9b9
gstelement
EquinoxBundle
iommu
##Bot
manages
NPSWF
##60e
EventAdminImpl
OFFSET
036
##a53
##U0
mistral
Hyades
1228
LibreOffice
QDialog
fsh
##oM
instruct
mech
##ubscribe
DND
Mont
##8030
1382
Adrian
Certain
ip6t
Milan
KLibLoader
LANGUAGE
Air
Firm
##mont
##gp
plane
##e8e
##d3e
##U9
1256
reverts
##e8fad
791
tons
0xb53
FILEN
Being
tp5o
OES
mux
##olds
db2
CONS
preprocessor
ksysguard
spinning
conventions
getInstance
rhel4
##3f3
##wu
##notes
formal
firebird
skill
annotate
MULTIPLE
##Binary
plaintext
pointless
NoClassDefFoundError
1209
finishing
LightweightDecorator
WorkspaceModifyOperation
##Y3
updateCurrent
##INAL
TRANS
vendors
##amar
KMix
##Headers
exha
0060
ciphers
##410
##oE
##ye
interf
netty
15936b6
##de495f9
##fe4e8fad
##cea87b54
15936b6fe4e8fad
##de495f975
##cea87b54de495f975
15936b6fe4e8fadcea87b54de495f975
mca
##tray
0x00007fe4
##iously
excessive
##Ud
##5fc
0x00007f46
991
kget
asf
Expl
##odevelop
afternoon
europ
##hid
cr2
bla
apk
libsysfs
MSC
Larry
1148
##oolkit
Existing
asset
hotmail
##6Q
##P2
##accel
##3cold
Swing
Reassign
761
bDescriptor
jmx
amukherj
##b8b
invokes
D3cold
##DERR
##TestRule
RIGHT
gsh
pings
##ão
mice
##sb
##d81
chances
0x80c
KN
eflags
##eae
##S1
noting
grl
msgs
misconfig
DRM
INSTRU
Owen
approximately
kerneloops
##Declar
##parm
##63f
Graham
NPSWF32
DSA
##0160
##ft2
3dnow
##nen
##eda
tune
##ObjectEventFilters
##layout
##qual
##ogg
assistant
literally
Quanta
YOU
1113
serves
Openable
evaluating
periodically
ovirtmgmt
##StorageDomain
lxc
ifr
terminals
difficulty
##ndfile
0x57
DoS
calib
seemingly
B1
##apers
##44b
##edicate
123456
sinatra
F12
##N2
##hone
learning
mimetypes
obscure
debugged
FRE
Sotho
Executor
denials
berkdb
jms
##ycl
hadess
FACT
approaches
NA
qmail
1075
##authorized
stylesheets
##amarok
Eventually
hh
stripe
##maher
##9bf
honestly
Guess
JARs
Decoration
Validator
paging
1346
chatzilla
##Navigation
sendThroughObjectEventFilters
1s
907
scrolls
OutOf
##Spontaneous
rpmlib
mTime
SDL
##oppy
##osta
Universal
partners
nevertheless
screwed
sen
##1886
##a0e
SOURCES
QHash
Saveable
##mux
##91922
concaten
##firewall
PXE
loses
##g2
1330
takeFirst
##regard
##Transition
subtitle
gtksourceview
placing
sysfsutils
##Growisofs
recr
1410
##62f
Iterator
CHILD
##fgang
##Lifecycle
##onal
noone
getProperty
##uK
##Qw
PRP
##c6e
Commands
Brick1
060
##Tile
selfserv
dhcp42
KMyMoney
Gedit
PSD
##a59
una
##7b7
ENABL
clarity
##Injector
ADR
##5456
##2200
SPF
##liminary
893
941
elegant
##angely
##ogin
speaker
##impl
setInput
1970
##ookie
libsndfile
Photon
##I2
##fers
##Hook
PASSWORD
reflects
v20110
ClamAV
##Occ
directions
##oge
##opts
xinerama
##0112
##assi
remark
Imm
1058
getChildren
recre
el7cp
##atson
joinpoint
##Targets
precedence
Eg
Ss
##IU
##angles
simulate
Turns
GeckoSessionTestRule
1124
##lapd
##AO
Persona
QGraphicsScene
985
ELEMENT
aqu
##oreground
testAdd
mailx
ruleview
Neutron
abstraction
TeX
##SpontaneousEvent
KPlugin
jmaher
##Rules
##antic
##Loading
tcpd
##section
##Declarative
fax
hierarch
##kx
##avers
BraseroGrowisofs
931
##a19
##c8e
dmg
KIcon
##pacho
Slow
tct
##36e53
torvalds
rar
notifyListeners
Armen
ccpp
##fe3
Zyg
capplet
##El
##86dec
setenv
##f9c20
##o2
php53
##compat
uptime
##owdapp
ai
smoke
STOP
##REEN
chooses
freshly
fulfill
##enta
NTLM
checksums
million
Suspended
##Termin
##MiB
##AndRender
Till
##13d
##4x
fewer
Changelog
925
##fd7
##1424
##e3c
ipmi
##3333
##ban
##Cancel
##qok
usecase
Reconfig
Dark
Gb
dsl
##CURL
##Fox
1320
players
##TING
##brid
George
1081
0x00007fb0
tasklist
auditlog
##monkey
##dc9a4
enters
##e2e
serialized
##Alloc
scala
GUID
IGN
##Jar
1360
##Logic
##dana
libamarok
graf
##a3c
imlib
FAURE
Refactor
pinned
fujitsu
exposes
anticip
bgcolor
kur
pspec
##30e
##Inf
PYCURL
1194
scp
##f9c
##f6c
##metal
##p0
##8608
elif
##eba
##612040
CPU0
##CompletionProposal
mangle
##d31
stages
forbidden
##j0
##ce96a8
263f4
cmirror
##array
Hans
##ocode
WebExtension
associations
##ae434f
##dced42
052
colle
##ba36e53
recursively
##5543f64
##9156ae4
##791b038
##ab8ed4
##18bdced42
##d4e91922
##e8796c2
##88761d34
##0153f9c20
##6037ac09
##dbff18bdced42
##d5c4ab8ed4
##f3849156ae4
##86decdbff18bdced42
##61204086decdbff18bdced42
##ce96a8ae434f
263f4e8796c2
##ba36e53d5c4ab8ed4
##5543f64ba36e53d5c4ab8ed4
##791b038ce96a8ae434f
##d4e919226037ac09
##88761d34791b038ce96a8ae434f
##0153f9c2061204086decdbff18bdced42
##f3849156ae4dc9a4
263f4e8796c25543f64ba36e53d5c4ab8ed4
##d4e919226037ac0988761d34791b038ce96a8ae434f
##0153f9c2061204086decdbff18bdced42f3849156ae4dc9a4
263f4e8796c25543f64ba36e53d5c4ab8ed4d4e919226037ac0988761d34791b038ce96a8ae434f
263f4e8796c25543f64ba36e53d5c4ab8ed4d4e919226037ac0988761d34791b038ce96a8ae434f0153f9c2061204086decdbff18bdced42f3849156ae4dc9a4
bases
##icky
maintains
edac
kspread
mixing
##isto
getNext
gcc3
##gorithm
##clusive
Resetting
923
##from
preferable
falling
Html
##Errors
##3fc
Headers
laptops
preethi
##7400
1018
AVAILABLE
##f85
##fixes
Mixer
##local
##qm
##stop
##BuildManager
JavaScriptCore
interpretation
Zygote
978
p3
##FQ
##0120
lineNumber
formula
##oct
##etric
##dev1
Bytes
imagem
##reader
timers
##OrWait
daniel
libuser
ifnd
Atomic
Mounted
##VJ
jbd
Performing
claimed
dimg
nsIFrame
##9fc
werden
Rules
Ts
jer
##jx
projection
TestException
tmpwatch
##21f
##6bb
##pv
1096
##Join
suck
##3b1
Haven
test3
keytab
distcc
Tabbed
##OrSuspend
##AvailableJobOrSuspend
##AvailableJobOrSuspendOrWait
Jira
##8240
operand
##procm
rgowdapp
ajax
cnt
##lie
##L1
##qh
##SelectionChanged
StandardHost
subsequently
Philippe
##onboot
occup
euro
##omin
##ibtex
##chemy
##5ae
##dfly
lnx
##detail
0x00007f16
##VP
shapes
emailed
RHUI
Thats
ModalContextThread
rescan
troubleshooting
hawkular
##ett
reveals
WOW
##Kn
avocado
confidential
amounts
Helvetica
0x02b
tp5n
##addons
takeFirstAvailableJobOrSuspendOrWait
felt
Wim
##Center
##edy
interim
Cpp
##lw
setEnabled
RHEL8
##a1c
usb2
textarea
consequences
ifndef
##ships
ctypes
timerWait
##W2
glandium
refuse
MAIL
##ToolBar
##kh
##93c
boo
HttpConnection
ContainerBase
##7800
##lGS
##a99
RESULTS
##missions
PIIX
TTY
##bg
1438
sendSpontaneousEvent
getfattr
##lags
rmi
l2
pear
##alib
Moon
certification
##d6e
quicktime
ctxt
0x00007fce
sigprocm
sigprocmask
##f4f
Ul
messing
##akuake
Atk
nsP
manipulation
Manually
bak
##trust
unselect
20010
##9400
BB
##m2
##ytes
appe
crap
##perms
##PT09
##fe5
mockups
##oni
compan
Tony
##lich
0x00f
##itan
updateonboot
Maximum
Carsten
##ÃÂÃÂ
Joseph
breadcrumb
Sadly
Vincent
w32
##YG
##orc
1415
internalRefresh
TestExceptionType
050
SaX
hpl
jcr
##XB
accomp
vmargs
##a47
Params
Arches
histogram
0xcc
file1
Scanned
Mint
OVS
##XK
setFocus
Arth
libssh2
updateCurrentTime
5672
##6b2
##reh
poke
Asus
##SocketImpl
Ganymede
##a33
##acted
##b2c
sufficiently
##kkkkkkkk
legitimate
passthrough
functioning
vmcore
Grab
##NER
uint32
ExecStart
##Identity
##NEL
##Subs
Eike
bell
sibling
##EQ
##J0
Company
0xb61
Broadcom
##Li
##m5
##a4c
completing
Persistent
Stateless
substitution
xio
##CompilationUnit
handleRequest
##5b5
##Behavior
ish
bugz
GeckoAppShell
libqt4
nsBlockFrame
OT
##ski
##itivity
1262
Clipboard
StandardWrapper
zooming
E0
##cx
notion
wherever
phy0
Jack
threw
3072
##scd
##FORMED
QueuedThreadPool
W3C
##MF
gstb
auditloghandling
0x00007f22
hey
0x200
##Hyper
asus
tooltool
submitter
##aka
##1bf
splice
##D8DB
##andidate
OSError
icc
##ority
##plate
enp
0x00007fac
PRIM
hacked
2243
DTST
delimiter
lad
##bz
##ipo
completeness
##ahead
##Registration
convince
##func
spir
INDEX
##nu
beam
##iplugin
1160
##undson
transmit
1104
##Subject
##Bookmarks
##d95
##JT
coreos
##faults
br0
Phone
Win7
iso8859
deselect
Lith
##Long
##1127
ath5k
Naked
gpl
##icer
##14000
behaving
##3f7
Emask
algorithms
fprintf
utilization
klauncher
iD8DB
##a13
##5600
Bring
Interpret
Sergey
zombie
##X3
insp
Chained
Resize
Evaluation
EvalFrameEx
surv
Approval
Fine
##my
##hana
Unresolved
monodevelop
##AAAAAAAAAAA
Galeon
xserver
ozone
##HV
##urus
##pdesk
IDL
IME
nec
1173
##note
Mix
poa
rbp
horizontally
Labels
jit
qg
##tmp
##Ctl
##k9
##enced
##chanism
LINES
Mit
cen
##UES
##pS
##roubles
EclipseContext
4194
##fc7
CreateNew
0x6f
##MainThread
ConfigurationElementHandle
Nicolas
MPEG
undes
Supplementary
libakon
syncd
##f1f
Mock
md0
##selection
ApplicationServices
JSF
Acrobat
getC
kdebase3
Bre
##Border
sha
kdDebug
Tech
international
##Lines
Third
##ULE
parties
##iating
Journal
justify
Artist
historical
##a700
recal
##66b
ffffffff8100
##tcore
bud
libXext
superv
##MAKE
##Life
newb
readLink
##f07
writeable
EXIF
bug7230
##3f1
1409
AuditLogDirector
bed
0x00007fc0
0x8d
Compose
Brick2
representing
Nate
kop
##AU
##ioned
libGLU
incorporate
correlation
48x48
mul
Revis
##9b3
##a9c
rpmqaV
##░░░░░░░░
##8000
##emb
##ushal
Describe
klipper
SOL
sapphire
1356
##MBER
##Editing
libmng
Boxes
TREE
b7f
rempt
America
1144
tempt
DSL
Jsp
##xd
##thony
##drive
eselect
1146
revocation
0x7fff3
Hourly
relate
landscape
VD
mcol
INC
0xbffff2
##Temp
1406
##allocate
##haviour
Unspecified
usbhid
##stuff
libfree
artwork
##ListenerList
prefixes
8702
##I6
##5b7
##LS0tLS0t
##a69
##LB
detector
##flag
WorkbenchPartReference
Sql
newmail
0x084
nowhere
##6b6
remained
poweroff
jumping
Christopher
QEventDispatcherUNIX
xpath
1097
##Stacking
##aram
Anjuta
teaming
KMessageBox
fxsr
EAP6
1118
REBOOT
techbase
LEA
angle
typos
klogd
##Kind
##ocairo
db4
EPREFIX
delegates
tilt
volunteer
##yZ
##plib
1128
opera
0x4dc84a62
bDescriptorType
JOB
##d97
00010
##ICB
imagefactory
ActionHandler
exceeds
pdx
Ole
##Mount
trial
PRI
Committer
sonatype
lame
##python
1219
propagated
##ByIndex
microseconds
PB
clash
doExecute
kernel32
mozillazine
semicol
dbh
##6480
painted
##MENTATION
1059
0x824
ingress
0x67
##3040
##Alarm
Ordered
##LeakLog
##a5f
##EDED
##VB
knlGS
##Ai
##ctool
lp150
KDM
WorkbenchPlugin
Ash
##hail
##agen
fc31
##Shut
sudoku
remotes
schrieb
##avi
##isty
manpage
rgw
##roubleshoot
libgda
reflow
##ategories
##WARE
##TEX
##iced
pre1
WebApp
Aggreg
soundcore
Browsing
iet
##Eclipse
##0010
mtnl
##erator
927
mtnlion
vaapi
Presumably
##a39
##qd
##urry
quad
##e5e
hotkey
CBUILD
0xb5e
TypeHierarchy
##FileName
##Decode
tweaking
0x00007fee
00000000800
urandom
MALFORMED
VIEW
##learn
Roy
##Ok
##d61
##pled
0x00007fa3
relations
spoke
autobuild
##f4c
ia32
##processor
escaping
1996
##Fling
Successful
Hind
pakchois
##Ah
DevTools
advisories
SEARCH
Wolfgang
ppds
kot
##Longer
0xb5d
volatile
##Units
coinc
recurring
##items
##ORITY
##wayland
##IMAP
NakedNotify
redistribute
Cop
libcrypto
disp
##y1
##posure
##1b3
Detect
kdesrc
Germany
milian
##Folders
0x00007fd0
acts
extensive
reversed
DAV
##e7e
##Accept
MPI
hibern
redesign
UIEventHandler
fbdev
##encil
bootable
##rf
##seek
##b4b
mwe
testHistory
##Scale
1214
cares
Kub
r15
##JECTED
##bb9
StandardEngine
INTEG
ondemand
9843
##Ruler
shp
##a85
aEvent
remount
##ERY
libkmail
backgrounds
##ContributionFactory
AUTOC
EntityManager
RegistryStrategy
PObject
Xserver
##ThreadPrivate
##PreferencePage
processLeakLog
engineScheduled
##Partition
XPath
##oooooooo
Bindings
Victor
##psrc
0x00007ffff2
blinking
00000000800500
##rown
rejecting
##wegian
bootindex
distlocks
##bb6
##Guest
keypress
Lambda
##wa
##ife
##63c
##OSGI
##Archive
Wikipedia
##aurora
##Push
##ken
##ospace
##Prov
DOES
00001000
1011
Genuine
##anjuta
1250
ApplicationWindow
##d1e
BadWindow
##itzer
raster
appending
server1
helpdesk
Azure
rl
##PAR
##66c
GThread
eo
ImagePlugin
viable
##GNOME
RM
iothread
ny
1344
stateless
##5800
nsCSS
peers
##TestApplication
##ju
positioned
##Disks
Three
##StructuredDocument
##Cp
coregui
##ADATA
##FileTransfer
##allocated
##LongerTimeout
BAY
BIND
##9bc
concurrency
ASUS
requestLongerTimeout
##a41
##ifiable
bLength
##Stub
buffered
camer
##iboot
1401
facets
0x00002af
pkt
##CAPE
erb
adopter
Fn
##Day
apm
##a87
erl
v0000
vcard
##wf
##ablePart
1127
9090
##j1
##Detector
1312
0x3c
0xc8
##cae
Resolve
##2800
GENERIC
##firewall2
Rot
##Rs
1031
0xb50
confer
##GVy
##Modules
libss
localize
##IRO
##d25
##overed
Incident
Rol
inappropri
Inner
nsString
Ham
##T1
oddjob
##elements
##urator
##3424
nodev
IPath
Handled
##hsan
Suppress
Known
GHz
##anza
bigsmp
##HTTP
nix
##mu
##Wx
Anaconda
KOffice
Were
##iqu
##Ul
##istd
packag
freezing
BC
##5z
1087
codeaurora
##ishing
0x180
##slash
specialized
orphaned
##Publisher
1233
swapper
1145
LPC
iced
zones
Chain
##notated
chains
##reme
##0126
testFling
runTests
##ossip
dmi
##f1c
CommandBase
##Intel
##ScrollArea
testFlingCorrectness
##Bo
gradle
##d27
machin
1016
incorporated
qw
##Bits
vmi
Topic
Karl
pagure
planner
Collect
computing
##ClasspathContainer
kimg
##berra
##attable
iajc
##FTEST
NC
1027
pulls
CDI
rdi
##Qual
##hZ
overs
##Orig
predefined
##ris
formed
##UTF
sha512
0x00007f76
messy
createControl
##x22
modular
##bb2
##d9e
crawl
xdata
##desktop
readv
##Cloud
##1b9
radeonsi
lucky
PRIMARY
##Rest
##P8
##X1
ldl
coordinator
Almost
##StackTrace
nsIThread
powerdevil
0x00007f18
ac97
##ROUND
Metacity
ENABLED
##Counter
035
occuring
qla2
affinity
asterisk
##GG
##c0e
##embedmoz
invocations
Backed
MDN
mcollective
##wind
excer
colored
brick0
servicetype
BMO
##nx
##NO
##assigned
##earn
REJECTED
kol
libmp
##23f
wildfly
Mr
tent
00000002
65533
##nZ
##SMTP
##1211
sky
GPE
iT
labs
##a5e
masks
##merge
##hack
Clar
000001
KCal
POOL
##Consumer
0b1
##oration
##output
conserv
1301
GLOB
Stacktrace
X25
##RD
##Vt
##Frames
Laura
Hungarian
##uke
conclude
ifolder
##7777
nsAppShell
##Implement
##Jz
##stit
##priv
##Replace
##Retrieve
##iac
1061
##ford
whilst
defaulting
ZygoteInit
wfm
##20a
KoDocument
##HandlerProxy
ResourceDelta
Lucene
0x00007f26
ATK
##adget
libppl
Opens
ENC
complaint
Firmware
1ubuntu
vast
Behavior
PWD
jour
##Way
Threading
vmx
terminology
##0108
dhcpv6
CCing
Indexed
revealed
heuristics
Average
1364
Addon
##works
Subversive
inherits
Handling
openrc
libfreebl
0x7fff1
SYMB
##2x
GLIB
surf
circular
BST
1092
##68f
##onnect
hadoop
UNL
vmconsole
AbstractEditPart
LoadModule
quoting
aor
ux
Different
bcel
paged
zoo
0x00007f86
##NTRELEASE
EWS
Subversion
bInterface
iot
1151
NEWS
cyl
favorites
Carlos
pfn
r14
##15000
##bits
collabor
Cyg
Tier
1322
0x00007f60
readability
##scap
cpuset
fencing
Fall
LI
1107
ITEM
CURRENTRELEASE
irqbalance
Medium
##quote
Atom
##x1080
QMap
Wrapped
##Oi
Weird
phoenix
3C
##iband
1244
equally
throughput
##ByName
Danish
##aus
2100
Members
QDBusConnectionPrivate
##hub
shoot
consensus
##null
##X0
##plit
1264
##ELD
0xb7f0
honor
HouseKeeping
##Rq
##62c
playbooks
JBAS
##d75
adress
Anton
7E
##cu
##k5
1119
setupt
##kscape
##windows
Definitely
iob
##5504
freax
EIN
##ón
autodet
matt
##xe
##a51
##estub
##SAX
dir1
Camera
NAMESPACE
QGuiApplicationPrivate
DID
c11
cha
spider
0x00007f56
Proc
quirks
smoothly
KScreen
##acts
##Exceptions
konversation
mitre
0F
0x00007fdb
##62e
Treeherder
codemirror
1304
REFTEST
sdn
replicas
libresolv
cacert
nie
##Ew
##d0e
##ying
##jp
Vik
##22c
Gitlab
Area
##classes
issuance
sysadmin
finder
##aae
##a2e
recommends
##rich
##d63
##a8e
0xbffff4
Kickstart
Beng
Sew
vif
##7200
##f41
Gi
West
##atim
##quillian
aggress
000002
##9b5
mac80211
substitute
##StackingLM
rand
Acer
ietf
##MOD
commod
meets
##waita
##Contributor
Dia
JLS
scim
decoded
rmm
saver
beaut
##Guide
libkmailprivate
Bold
##a5a
##make
WOW64
##Seg
##andR
##ecker
ReflectionContributionFactory
Turkish
Nathan
WIT
ovf
rpt
xft
suit
1414
0x00007f35
counters
Motif
##alam
resubmit
backfill
smarter
##TEXTP
AI
##Make
1093
bashrc
CONTAIN
OutOfMemory
Thai
setCurrent
1362
RegistryStrategyOSGI
XHTML
##WH
baselayout
##graham
##Eng
libkrita
BODYTEXTP
##YWR
holiday
Feedback
Alright
##Resolve
ReadOnly
sfperms
RTC
##aton
CLA
v20120
##rait
1201
Angel
##Devices
1103
schemes
2D
##d91
##1216
classifier
Forb
ttm
##ataria
##▓▓▓▓▓▓▓▓
8787
mdb
distributor
##Features
##d17
JavaReconcilingStrategy
autolearn
##TERM
Ui
0x00007f66
WIDTH
CLEAN
gaim
##aylor
##68c
##ONENT
REN
hesitate
gazpacho
##1360
vsctl
821
nump
inference
1054
1116
##c3e
Willink
##Permissions
##HOUT
##Foundation
juk
Bootstrap
Jonas
BAYES
fores
defunct
Brad
##ompare
ESS
##jh
##anny
importantly
unneeded
Offline
Hang
fool
##WEB
##k7
dom0
tctdetail
##lp
062
PThread
vec
1319
Composer
##URLConnection
identifying
##Operator
CoyoteAdapter
##jg
2199
baremetal
LISTEN
018
NIS
##rer
0x00007fe6
correl
IIIIII
Expires
ctr
n1
##Pump
##loading
rcu
MDT
##a9f
##MDA
ash
BuildID
programmers
##I0
##NX
nsFrame
sniff
Strings
ESMTPS
##Verify
5s
Af
##WL
INTO
##owing
1274
Fred
##erved
0xb52
##Dependency
ecj
##ALLOC
##IMATE
##LifeCycle
HERE
ResourceImpl
Schedule
CTE
WITHOUT
##jet
##e3e
audience
Keystone
0xbfffe4
##FromSocket
##Tracks
gconv
BEF
rc7
##c7e
v4l
##Rows
Imap
dozen
spoof
ipaserver
##DTD
##fe1
##Jh
Experi
RESOLVER
dimension
INSTANCE
q35
strs
##bb5
hci
##chang
##0130
compreh
freeing
0xbfffef
COMPLETE
ANT
mz
##WQ
jsch
SCM
mart
##JP
##eno
1035
##1102
Threads
ServletHandler
JavaDoc
externally
intellig
werror
fortran
XMLSchema
SRV
heroku
Gauge
##protocols
##iom
nog
optimised
keyutils
ffffffff813
esh
emitting
1102
Approved
##I1
1465
allocating
converts
E2
separation
hplip
KXML
POT
##ADE
libf
unmask
EC2
##x3
##edStatement
Pixmap
Tell
nay
##f45
Recently
CERTIF
921
ang
win2k
stdlib
balancer
cumin
##a63
##astore
##qv
##eling
##acd
unz
braces
ves
##iw
libpanel
contrary
RESOURCE
##ional
##Stat
##69f
cartridges
TableViewer
stackwalk
libgtkembedmoz
CTARGET
programmatically
##anal
reinstalling
deserial
whatso
##iffin
rubygems
Keeping
Da
##16000
0x00002b2
PGO
Uploading
##fly
##Jy
lwp
rewriting
##6b3
larg
Probability
##built
##nb
##28b
##php
##3fe
##This
019
deg
##oconf
nokia
makefiles
##fffc
ELsmp
SEND
kcal
##nik
##Literal
openSuSE
EngineController
##a79
libatk
DJ
vsphere
##jw
##proto
translating
reaching
SpecialPowers
##criber
##d23
##Present
1347
abbre
0x00007f64
##quate
logwatch
##9600
1227
STDERR
shadows
##req
0x00007f00
3200
documenting
CPPT
pagesize
disconnecting
cancellation
##mapper
##fba
##Ap
drwx
##9b1
ghostprotocols
firewire
##d67
##SET
txn
deprecate
qx
##zb
##trast
0x00007ffff3
Specification
PIN
##Locks
envelope
domU
genmodel
interfere
##HOST
##hook
##5280
USA
##Ux
STY
Fragment
blogspot
Messenger
Planet
toggled
overloaded
Prior
##iert
1232
man1
WARRAN
identifiers
treatment
CG
SENS
##oul
justified
WARRANTY
##Cb
##ipiplugin
popping
Consequence
manipulate
PD
##FK
##Capability
ATTRIB
INSTRUMENTATION
sis
u001b
kom
##ftool
##ikes
Johannes
3076
7080
##mat
preempt
Configured
XSL
##ff000
##ungen
vapi
isnt
0x6c
PulseAudio
fg
##uo
##f0e
TRASH
4012984
pclmul
Seth
##ham
##Instr
##IDe
##f47
libXt
Productivity
##SelectionDialog
##writer
##imageio
0x0001
##a6e
40129846e
bust
##dat
##q1
##VZ
gstreamer0
4p5
##estream
Workflow
##a9e
stubs
LEGIT
OLD
##asa
conver
##6050
netns
counted
fills
1164
1240
Assembly
0x2d
ID3
ATM
RELAYS
Armv6
IIIIIIII
whatsoever
hud
##ssss
##Chart
Intern
unmounted
reworked
##Undo
Hall
L10n
##vance
lok
1355
##Paths
0xbffff0
emerg
Sax
iops
0x00007f14
##Wrapped
flickering
##1201
Hil
Prom
##u2
clever
##chp
##Real
SIGNS
BITS
Resolver
Incub
SMBus
LEGITIMATE
S4
1007
loop0
##IndexOutOfBoundsException
##writes
##Mach
appdata
lean
slist
##ItemExecutor
Booting
SuSEfirewall2
##tproc
Fair
oml
##unnel
BEFORE
attrib
##idays
##52a
accent
##EObjectImpl
Pierre
Rafa
1536
api16
##e1d
##BG
##std
1229
comps
relais
icedte
mike
##8g
##vw
##Hg
presses
ext4dev
##Handshake
YYY
i2
kjob
imageformats
PerlMx
ClamSMTP
##3f5
policycore
sqlal
QDom
ctime
guides
transfers
5353
GetValue
mmc
CBI
exclusively
CSharp
##Sk
##69e
keysym
##T0
MultiPage
powert
xpdf
ads
##Flush
Postgres
INCLUDE
Aud
Cour
Raj
1098
noout
##oZ
##Resolution
FontPath
##hananjay
##v5
##ontal
##a6c
EXTENSION
MK
Pie
attachement
neutral
0x1a0
underscore
seclists
PTH
##Prof
Generation
sdd1
spirit
auch
##BW
1349
##5520
##Encrypt
BAT0
##anga
##9200
Important
CompilationUnitEditor
Thinkpad
ioport
policycoreutils
##uru
##tpo
I2C
##long
##Enable
##21b
accounting
##f5c
freesize
pivot
##HN
ssse3
wasted
Anthony
arrive
##Shutdown
RAC
0x00005555
Reviewers
Quota
0xbfffee
legally
worthwhile
recom
grabbed
Calculating
##Ignore
Bul
F9
ig
ALLOW
pypi
1260
0x00007fad
clustered
##e1e
SWAMP
Named
3400
rwx
promotion
##AI
##uctions
##Bw
029
##29b
NoneType
Listen
Dhananjay
mdt
##HM
libevent
##ollection
##ddle
Norwegian
##2b4
GSList
CONNECTION
##reftest
1492
vfio
StandardHostValve
##world
##Resize
erased
##Modification
flicker
##880
##ен
getAdapter
1464
ExtensionRegistry
##Accum
CreateNewLine
##fus
##accept
slotFinished
CreateNewLineFromSocket
1230
##a1e
buffering
rejects
nsIContent
SEEK
ion
##Side
DSO
GOK
##licks
ResourceManager
bugreports
mentor
##Dynamic
curios
pipeline0
DEFINE
lcd
##the
##1900
##2b2
##ItemSelection
tty1
lsusb
terrible
BCM
##ockets
XMLHandler
practices
Deprecated
BUFFER
veth
PLAT
CSP
##FILES
FOO
VolGroup
v01
##R3
nose
foresee
Cleaning
Demo
Ssl
##d65
0x00007f1b
##AGAIN
##values
##d258
CR1
1109
##a7e
Continuing
##Az
##leen
##Ins
##Sanit
Unpack
##ARED
0x160
pcsp
##mozilla
TOOL
voting
neigh
1377
nsContainer
Customize
Bryan
##U6
##Emitter
0x00007fc2
gtkbutton
factories
##oscar
sct
addListener
Ann
liboscar
simrel
3B
5D
##product
ata3
1070
1169
0x00007fca
Above
##iverse
WLAN
##oda
clou
STATIC
conservative
##CV
##idl
EXCEPTION
Xavier
idVendor
##22e
Chapter
##naire
##Discovery
##cpp
##qg
stretch
##1030
Jones
energy
##46b
credential
bacon
##4J
##achin
1037
prime
cosmetic
5x
##a71
promin
##ulu
setTimeout
unbound
JavaBuilder
##Dn
##v9
1162
0px
##Handlers
TSC
##ocenter
Sta
kdebase4
xfce4
psp
brushes
Subscribed
##eep
##192
teh
stumb
1450
22x22
##ATTR
0x00007ff0
CKA
PTP
##Dw
launchConfigurations
dumping
##ChangeListener
COMPONENT
CERTIFICATE
##DNS
diss
##1300
##strip
##26e
0xffffffffffffffff
##FragmentRoot
ContentAssistant
Zanata
fox
##wave
##d35
##ervic
FILENAME
1257
rmmod
intact
Arrays
##a91
##REL
notices
1157
duplicating
Moh
##bbc
Pun
SAT
##8080
0x00007fa4
DEPEND
ldconfig
buckets
Ravishankar
##ctrl
EXE
##PT09PT09
Odd
vict
0x00007fc4
##Translator
Bes
Cro
##u1
##chema
APPL
SING
resync
ABORT
Hug
Eng
Gmail
TOS
XR
l3
qos
##home
highlights
K8
oid
##bile
##oS
calloc
howto
##ReportValve
relationships
HAND
dunno
##Matches
F10
r13
##ontrol
##f3c
##AVY
rounded
0xf7
##emodel
1065
##actl
##isfied
LGTM
hvm
lstat
##QG
##opic
Trad
##Deployer
ipp
##d37
1068
compet
startWorker
Forum
Battery
kworker
##rooge
1279
##pha
AbstractSession
1131
AbstractDocument
##Plain
ctlplane
Buckminster
shpchp
keystore
dmix
calculator
##mentioned
Replicate
1477
Caching
rados
##ker
libgpg
recruit
tf
##QM
##3232
accord
magnifier
##LAND
##b2f
##Permission
mant
distur
##ouched
##Drawable
mozregression
sqlalchemy
1217
##preload
##Buf
nebula
fstest
##Packages
##U5
trapno
onboard
browserAction
Shot
oldmask
##42b
##63e
##Fy
viatra
1920x1080
libpath
specifications
sse4
OVF
##jZ
##1510
##PLUS
overlooked
grafana
CID
1282
##Chunk
##FFF
Ur
cid
##BT
##kw
##frpc
##Propag
SEGV
Tos
##PON
##MAN
0x00007f72
Remoting
##5fe
puppetlabs
Agreement
nvme
EAGAIN
##Views
CDATA
##b6f
1306
slew
QTreeView
##amplain
alm
hostdev
##Required
Edu
gsi
##Skeleton
##Fac
##NA
##Compose
GenuineIntel
1324
##porate
##ottan
QQmlThreadPrivate
quickstarts
libclang
##a17
##AsyncTask
ADM
##Yy
0x5c
##2080
libgfrpc
Grad
Downloaded
Radio
Sony
##20200
cni
flashing
##illas
##42f
##Activate
marketing
##POSE
HEL
mig
##tor
##mind
libinput
##ARM
LaTeX
RecipNotFound
Squ
0x080b
hdparm
Inspect
Forbidden
Rx
marshall
repeatable
laz
##feed
0x00007f84
FireFox
WinNT
fpstate
kxml
##d71
##Q1
##pell
reimplement
1184
1255
##Exiv2
restores
0xb7ef
smar
hyphen
##2048
##into
##height
paperwork
##AMPLE
xor
##eto
1570
##cluded
libnl
judge
##26f
SecureAction
6x
Xbase
idProduct
##riov
##elloworld
amq
adjustments
msec
uffff
##sz
##JUnit
1069
##StartLevel
libakonadi
Mort
c00000
##hin
fires
Metric
##passwd
VALUES
##nall
##option
##Ur
##Yn
indef
fxa
##ividual
Brazilian
##Uz
##ectl
0x4078
libswt
##certd
framerate
Igor
knode
emitter
ElementTree
QItemSelection
##Mutex
0x1f0
##Printer
##raig
paintops
spellcheck
Compiling
whoever
video0
##wiw
unsuccessful
fh
Attributes
iscsiadm
TCF
##erately
##clue
gpilot
holidays
##RW
1288
0x00007fffe
VISIBLE
S2
gsl
jeff
unmap
##ichar
##conn
SWTBot
munmap
1328
##ffd700
##enb
getItem
threadimageio
0x7c
Reflective
curiosity
LBA
wdt
##U3
http11
el6sam
##30d
swapped
Libvirt
lite
feb
Enum
suspected
0xbfffed
advertise
QProcess
jul
libgmodule
0xb7ee
looping
kdesu
pgsql
64K
rhsmcertd
dhcpd
0x00007fcf
listitem
##paranoia
stopper
irrit
KXMLGUI
libget
dequeue
##irmed
StandardContextValve
iframes
Emm
HI
##Created
##wai
##NIC
shortened
##Alias
##textpo
##protect
##vy
1143
StandardEngineValve
##Pix
##chr
1176
##duit
1380
designs
Cygwin
##Vector
1540
Qt4
quicker
pio
contextual
##ALE
discont
GSSAPI
Edge
##k3
##44f
##Declared
spending
##Attachment
assertEquals
lowest
1073741824
##Supp
##abd
##plugged
##exit
HEAVY
##usercontent
Undefined
##Sanitizer
9x
Xms
##pick
0x00007f94
Franc
##00000001
dvi
SECUR
libgettextpo
##xkb
1332
strateg
##d800
responds
##Completed
##d436
calculations
setuid
nsIM
##e4e
0x00000000005
cx8
0012
##bking
##Sets
##esearch
##d7e
vgpreload
expressed
SV
sar
##eport
directed
subtree
PPA
##DIS
##30a
Cooker
continuously
##MEM
MenuItem
Rafael
sensor
gconfd
Naming
##pta
##0115
##rc2
cancelable
QUERY
felix
##i0
##48f
commodity
##ervicestub
Ram
hil
determines
0x5b
0x00007fcb
reserv
00007fff
##Tags
libkex
0x00007f11
0x00007fb3
Website
Tik
0x00007fec
##9f5
11401
##ulative
arc
##26c
QThreadPoolThread
Game
1296
outlook
0x00007f54
##8700
XSLT
Ukr
signer
Notifications
QTool
REMOTE
EAPI
##iency
m3
##Chat
startx
xmllint
##6b9
ObjectInputStream
CPPFLAGS
QAbstractScrollArea
nepomukservicestub
FAIL1
TIMED
traversal
b43
##ocera
##ocker
engineer
libgstcore
##Special
Upgraded
##classic
StandardWrapperValve
gist
mous
##based
##BZ
##94d
prefixed
scalar
##inen
##idently
localstore
ffffffff88
MatchLocator
VI
htt
4611
indented
##IKE
LINKER
oom
##picker
##resources
serviceaccount
informative
Ukrain
PING
POM
water
##Insert
libXrender
openjpeg
crashtest
OHCI
1353
abuild
##5056
##ieren
semaphore
ssf
supervdsm
pcspkr
trade
manufacturer
sendto
##param
0x7fff5
ICU
2aaa
OAF
0x00007f96
##eb70
Colors
qmutex
exclusion
consumes
NVidia
##rz
##ivet
Inventory
III
iirc
##BY
rhscl
X509
elem
##aea
Std
budget
##mV
##channel
##1112
openmpi
PLE
##Has
##ALOG
QSG
Shortcuts
pthreads
##ecompass
liboil
Arav
splits
1402
Indexer
Everytime
obsoleted
preparation
##opp
contro
0x00007fe2
SIGTERM
##Ay
recheck
1163
FileInputStream
Certificates
xkl
##a81
1960
Unity
vme
##1b1
ONE
cheers
Failing
whatsnew
##a95
##SV
##GA1
##ilename
orchest
swapping
JavaReconciler
##67c
##News
##VmCommand
libasprintf
##a93
##PF
##umann
bitrate
nodefaults
variation
CAIRO
shotwell
conversations
##Js
0xf8
sumo
happend
##XmlGui
KTextEditor
bkr
0x5a
abn
arjuna
##xb
0x00007f99
##1500
subsys
isValid
0x290
GMain
Communication
Nodes
##Each
reformat
shim
valign
hostgroup
REOPEN
##1106
##hq
##inho
deem
acct
##Resolved
Webmaster
aclocal
##3800
##ositor
semicolon
bidi
wird
networkmanagement
##k8
##5040
##9b7
0x00007fe0
invite
knetwork
robin
AAA
└──
##lek
##quee
patient
miner
Serialization
Kris
PartListenerList
##b1c
intranet
groovy
invitation
Tester
Shy
##2100
oriented
dangling
##thas
newt
##3130
GraphicsMagick
Finger
##uu
##1108
diag
mirrorlist
prompting
grows
nbd
##d57
uniform
peripher
Shall
NETS
tracecompass
EMERGE
XULRunner
TYAN
Gather
##rain
##collection
0xb5c
##Nvb
0033
docshell
00002000
##irectories
Instrumentation
##Nr
CDOR
##yyyy
GID
inserts
##cn
explore
virus
4294966784
organizations
##Dependencies
libgstcoreelements
Yesterday
rq
Excellent
charm
##fonts
##imagesink
italic
##Basic
##ara
##0113
libvir
dtor
##xm
##Future
0x00007f34
0x00007f23
##b6a
slowdown
##abbix
##WorkingSet
DIRECTORY
relocatable
##dap
##0116
unatt
1363
backslash
regenerated
blacklisted
Pkg
##Ww
##ayon
qthreadpool
Playing
ath9k
##1212
crasher
Serbian
262144
##Detail
subvolumes
LUKS
freen
wasting
nsDoc
KWallet
##HP
sticks
##ddd
1180
0x00007f02
revalid
PresShell
appname
Swift
PROJECT
heuristic
purs
##GZ
libev
1223
Comb
##9800
p4
##50d
##3616
1123
##visual
mtx
NETDEV
retrieval
##ocused
1302
0x00007f7f
PCIe
PSM
keystrokes
##obs
Telemetry
##iena
##Persistence
##results
LX
LTR
##Yz
1396
Qualified
##oJ
libICE
ats
##UTEX
##Graphical
regressed
helloworld
reth
hashCode
XXXX
Permissions
dmsetup
##Iy
##0114
##0118
Rebuild
##cket
##dkit
TextFile
##dbd
mozilla1
boundaries
ffff810
tackle
0x00007fed
Operator
kgpg
INTEGER
indefinitely
pump
##kK
Disposition
I20100
##esize
doct
compound
1340
##4794
leader
rmdir
OEM
##QC
hass
langpack
organize
cronie
##RK
##see
1308
advantages
##MergeViewer
Escape
iid
##eri
##1950
downtime
Scene
BF
1345
Seeing
Kol
jn
##Fn
doSet
modul
##legita
MAIN
00000000001
klass
QAbstractItemModel
Lik
1125
##Projects
ghash
##Analysis
libplasma
gspawn
Cinder
##Pair
terminates
Half
LED
VEX
dstore
0xb8
##properties
##oh
orm
1071
##Inline
fffffffffffff
libkcal
ClassFile
QVector
YELL
mtp
##blkid
gcalctool
##Ih
##pan
newlines
agp
kdeclassic
CPPTemplates
##shan
ClassNotFoundException
lvol
##DVQQ
Constraint
logback
##Warnings
##Bundles
bay
getd
ActivityThread
##ernandez
##fall
##uw
##18000
xml2
standby
recovered
Cut
Games
inaccessible
##pci
##25f
worries
geclipse
Scripts
tetex
throttling
Erik
GSettings
Werner
##3945
##align
libem
##endo
ksocket
Synchronous
bumping
sdf
trimm
##SaveThread
colleag
##8032
Junk
##ury
integ
parentNode
horizon
##vz
libblkid
##3600
##bb3
drawback
##ijk
gcj
Sarika
0x150
Jobs
SaveableHelper
Kal
flegita
Dead
brw
Happy
RAND
0xb57
Oliver
cope
0x00007f08
##2bb
splitter
ICMP
0x00007f15
##Opt
0x00007f38
##ideos
##65e
skype
EvalCodeEx
##Ry
IPs
cbc
cib
gcr
scc
##28f
liked
minidumps
##Catalog
##Ã¤
nofiles
1434
guchar
0x00e
Fehler
Andrea
wallpapers
##components
pontoon
##wend
##fu
1155
##1100
0x00007fd8
##1979
##frames
mediawiki
##etrans
focussing
##montools
Pay
##OiB
##Q6
##emove
##0122
1168
##Construct
##Animation
ENS
libipa
1177
1900
tweaked
nodigest
uptodate
p6
##Palette
gee
ook
Uninstall
##2b6
##b8c
subtitles
began
ksmserver
nsTable
implied
Yelp
##Ms
##0102
ground
##irl
corners
2800
CONTAINER
M11
YAML
##i1
##3D
##cation
##stools
##Conn
credits
decodebin
Subscribers
Wacom
h264
##pipe
##11000
downgrading
##provider
##VFS
relocation
##5a5a5a5
0x3e
Listening
0xffffe424
accuracy
Credit
Istria
setuptools
hk
1501
leftover
##Ro
unmodified
##6bf
bbp
Frequ
SECURITY
c00000000
##a61
##mac
##interfaces
##ropy
Jess
##Addons
smartmontools
stabilization
sadly
0x00007f7b
divid
##PMS
##0103
##cht
rootfs
##5760
##OTH
Relevant
KNetwork
PVC
##q6
##roxy
##ccd
ieee80211
libasm
engl
0x00007f2d
##phy
Portable
calculating
thresholds
##Initialize
Djava
dustin
##Clone
##Running
Scoped
##fc5
EDID
powertop
Hint
OutputStream
blend
Ali
Sor
visbile
##b4f
Marek
##ifer
0x190
##Visual
##Configurator
jbosse
JA
##arus
seb
servant
combining
assessment
t3
##randr
##ulations
##7664
2440
promoted
redirecting
arbiter
##AddressBook
succes
##Ne
finalized
enums
libpng12
jaxb
5B
BTR
aic
gilles
msp
nim
##0a
##OTP
##loaded
##Prefs
Drivers
LONG
##SO
##66e
Ghost
mcom
1284
##554c
##bbf
Channels
Fenix
##opper
##Normal
##Marshal
alg
1156
INCOMP
##a3a
Brick3
tidy
Contributor
A0
##18c3
078
Gateway
1270
[...]
